<unk>	0
<s>	0
</s>	0
▁t	-0
▁a	-1
he	-2
in	-3
er	-4
▁the	-5
on	-6
▁s	-7
re	-8
▁,	-9
▁w	-10
en	-11
▁.	-12
▁o	-13
at	-14
▁c	-15
ed	-16
an	-17
or	-18
▁b	-19
it	-20
▁f	-21
es	-22
is	-23
▁p	-24
ing	-25
ar	-26
▁in	-27
al	-28
▁to	-29
▁an	-30
ou	-31
▁of	-32
▁h	-33
▁m	-34
as	-35
ic	-36
▁d	-37
▁and	-38
om	-39
il	-40
ion	-41
▁th	-42
▁l	-43
ent	-44
id	-45
▁T	-46
▁re	-47
▁n	-48
el	-49
ro	-50
▁'	-51
st	-52
ec	-53
ay	-54
▁A	-55
▁"	-56
▁S	-57
ut	-58
et	-59
▁g	-60
ad	-61
le	-62
▁on	-63
ve	-64
▁e	-65
▁for	-66
ac	-67
ol	-68
▁M	-69
▁C	-70
ot	-71
▁I	-72
am	-73
ur	-74
▁be	-75
ig	-76
ly	-77
ver	-78
▁he	-79
im	-80
▁that	-81
▁B	-82
ir	-83
▁st	-84
ow	-85
ter	-86
un	-87
▁The	-88
▁is	-89
us	-90
ill	-91
▁wh	-92
ation	-93
ith	-94
▁it	-95
ers	-96
▁with	-97
ce	-98
▁sa	-99
▁was	-100
▁P	-101
ld	-102
▁as	-103
▁at	-104
▁1	-105
▁H	-106
▁W	-107
▁r	-108
os	-109
▁y	-110
▁said	-111
est	-112
ear	-113
em	-114
▁al	-115
ch	-116
▁con	-117
oun	-118
ul	-119
her	-120
ts	-121
▁D	-122
th	-123
ore	-124
▁2	-125
▁fr	-126
▁R	-127
00	-128
▁F	-129
▁pro	-130
ag	-131
ain	-132
and	-133
▁com	-134
▁N	-135
▁ha	-136
ak	-137
ri	-138
pp	-139
res	-140
▁by	-141
ew	-142
▁G	-143
igh	-144
ment	-145
▁L	-146
ate	-147
op	-148
▁from	-149
if	-150
▁are	-151
▁his	-152
▁has	-153
ect	-154
ould	-155
▁have	-156
▁ex	-157
▁v	-158
▁-	-159
▁O	-160
ess	-161
▁sh	-162
▁su	-163
our	-164
ort	-165
▁J	-166
▁ch	-167
▁E	-168
ast	-169
ies	-170
▁U	-171
▁de	-172
ist	-173
ity	-174
oc	-175
ab	-176
od	-177
end	-178
▁not	-179
all	-180
qu	-181
art	-182
▁un	-183
iv	-184
ive	-185
um	-186
ial	-187
gh	-188
se	-189
ra	-190
ard	-191
▁le	-192
ack	-193
ee	-194
ud	-195
ct	-196
▁pl	-197
up	-198
ust	-199
out	-200
▁or	-201
day	-202
▁)	-203
▁(	-204
▁will	-205
▁sp	-206
ost	-207
ight	-208
ich	-209
▁who	-210
▁ab	-211
▁go	-212
ome	-213
▁In	-214
ant	-215
are	-216
▁j	-217
▁k	-218
ice	-219
▁year	-220
▁off	-221
ap	-222
▁had	-223
ere	-224
▁wor	-225
ell	-226
▁whe	-227
▁--	-228
▁their	-229
ff	-230
ok	-231
▁ag	-232
▁per	-233
▁were	-234
▁se	-235
▁but	-236
▁they	-237
▁comp	-238
ong	-239
ry	-240
▁K	-241
ans	-242
ge	-243
▁been	-244
▁this	-245
ough	-246
ound	-247
ther	-248
ure	-249
▁out	-250
▁ad	-251
▁its	-252
mer	-253
ire	-254
▁more	-255
ber	-256
▁which	-257
fter	-258
ions	-259
ia	-260
▁cl	-261
der	-262
▁would	-263
ous	-264
▁St	-265
ine	-266
▁up	-267
▁res	-268
▁inc	-269
▁ne	-270
ary	-271
ep	-272
▁ac	-273
▁tr	-274
▁Th	-275
ide	-276
ie	-277
▁exp	-278
ub	-279
▁ar	-280
▁about	-281
▁rep	-282
one	-283
▁3	-284
▁Ch	-285
▁200	-286
ated	-287
▁after	-288
▁over	-289
▁we	-290
▁all	-291
▁int	-292
age	-293
ime	-294
ik	-295
ark	-296
▁man	-297
wo	-298
ue	-299
▁one	-300
▁:	-301
▁cont	-302
ign	-303
ip	-304
▁pr	-305
so	-306
ame	-307
▁new	-308
▁rec	-309
▁than	-310
ence	-311
ident	-312
uc	-313
ord	-314
ian	-315
▁$	-316
own	-317
lo	-318
ount	-319
ally	-320
ks	-321
ake	-322
▁can	-323
▁An	-324
▁do	-325
ays	-326
act	-327
▁fir	-328
use	-329
ven	-330
▁her	-331
▁pol	-332
old	-333
ose	-334
ond	-335
▁pe	-336
▁It	-337
ors	-338
▁en	-339
ail	-340
▁im	-341
▁dis	-342
ree	-343
▁also	-344
ations	-345
▁He	-346
▁you	-347
ance	-348
ace	-349
ress	-350
ile	-351
▁two	-352
▁me	-353
▁fin	-354
ely	-355
▁Y	-356
illion	-357
ren	-358
▁qu	-359
▁sc	-360
ople	-361
▁when	-362
lic	-363
rit	-364
ass	-365
▁other	-366
▁app	-367
av	-368
ib	-369
anc	-370
▁part	-371
ish	-372
wn	-373
▁first	-374
ite	-375
hed	-376
▁so	-377
ates	-378
▁bec	-379
▁people	-380
og	-381
ase	-382
▁last	-383
orm	-384
▁gr	-385
▁she	-386
▁ro	-387
▁But	-388
▁4	-389
vern	-390
iz	-391
▁V	-392
▁pre	-393
oll	-394
able	-395
man	-396
▁sec	-397
▁into	-398
oin	-399
ical	-400
▁Mr	-401
erv	-402
▁acc	-403
very	-404
amp	-405
ade	-406
ning	-407
ens	-408
ild	-409
▁19	-410
▁inv	-411
▁op	-412
ick	-413
ach	-414
▁5	-415
▁some	-416
ru	-417
ict	-418
▁could	-419
ition	-420
▁att	-421
ents	-422
▁lo	-423
▁work	-424
▁lik	-425
▁inter	-426
▁us	-427
▁them	-428
vel	-429
▁dec	-430
▁years	-431
▁there	-432
ang	-433
vernment	-434
▁Un	-435
cent	-436
ult	-437
aw	-438
lud	-439
▁wee	-440
▁no	-441
▁time	-442
reat	-443
▁?	-444
urn	-445
▁mon	-446
ank	-447
iss	-448
▁imp	-449
ational	-450
arg	-451
▁offic	-452
▁lead	-453
ings	-454
▁el	-455
itt	-456
▁ind	-457
resident	-458
oup	-459
ause	-460
ov	-461
▁Al	-462
enc	-463
ey	-464
ft	-465
▁him	-466
ton	-467
▁bo	-468
▁cons	-469
▁again	-470
▁co	-471
▁comm	-472
▁any	-473
ory	-474
ind	-475
▁includ	-476
▁count	-477
ob	-478
▁government	-479
ublic	-480
ons	-481
▁percent	-482
vers	-483
pt	-484
ious	-485
000	-486
ets	-487
▁under	-488
▁am	-489
▁play	-490
▁just	-491
form	-492
▁compan	-493
▁if	-494
red	-495
▁back	-496
land	-497
,000	-498
▁kn	-499
▁te	-500
ied	-501
meric	-502
▁6	-503
fore	-504
ash	-505
▁New	-506
ince	-507
fer	-508
ater	-509
ues	-510
ected	-511
rough	-512
▁what	-513
▁bet	-514
▁month	-515
ited	-516
▁only	-517
▁As	-518
als	-519
▁three	-520
▁million	-521
▁cr	-522
▁ear	-523
▁act	-524
▁Americ	-525
▁report	-526
row	-527
▁most	-528
led	-529
ama	-530
ities	-531
▁Fr	-532
hn	-533
ock	-534
▁We	-535
rop	-536
▁week	-537
▁down	-538
▁say	-539
▁reg	-540
oss	-541
▁before	-542
ink	-543
▁get	-544
▁mark	-545
uring	-546
▁cent	-547
ters	-548
ise	-549
▁rem	-550
we	-551
▁now	-552
ert	-553
▁add	-554
▁like	-555
▁20	-556
▁car	-557
▁supp	-558
ased	-559
onom	-560
▁bl	-561
▁because	-562
▁bu	-563
ating	-564
uch	-565
▁Wh	-566
▁ec	-567
▁min	-568
▁call	-569
▁des	-570
ath	-571
ood	-572
▁7	-573
▁Ob	-574
▁end	-575
other	-576
air	-577
gr	-578
▁show	-579
▁ass	-580
▁how	-581
und	-582
▁ret	-583
▁invest	-584
▁;	-585
ement	-586
les	-587
▁did	-588
lin	-589
ix	-590
ool	-591
ting	-592
ier	-593
▁where	-594
▁being	-595
▁And	-596
▁hel	-597
ices	-598
▁against	-599
ouse	-600
▁10	-601
ork	-602
orn	-603
ved	-604
▁em	-605
ward	-606
▁official	-607
▁sur	-608
▁Obama	-609
▁world	-610
aking	-611
▁econom	-612
ble	-613
▁rel	-614
son	-615
ove	-616
▁made	-617
▁def	-618
▁may	-619
yst	-620
▁ins	-621
▁help	-622
ower	-623
eral	-624
▁four	-625
▁br	-626
▁str	-627
du	-628
▁many	-629
▁through	-630
▁even	-631
alth	-632
▁fl	-633
tern	-634
xt	-635
▁need	-636
ife	-637
ection	-638
oth	-639
▁ev	-640
▁mil	-641
ily	-642
▁home	-643
▁fe	-644
ital	-645
▁long	-646
▁our	-647
▁since	-648
▁own	-649
gan	-650
▁serv	-651
▁On	-652
▁war	-653
ason	-654
▁Com	-655
▁while	-656
▁see	-657
▁second	-658
▁plan	-659
▁make	-660
ros	-661
▁told	-662
▁/	-663
gg	-664
▁Re	-665
its	-666
▁should	-667
▁bus	-668
▁poin	-669
▁says	-670
ful	-671
rib	-672
▁8	-673
▁prov	-674
year	-675
ms	-676
ared	-677
▁Ar	-678
ax	-679
ments	-680
▁such	-681
▁high	-682
ual	-683
▁£	-684
urs	-685
▁company	-686
ric	-687
▁group	-688
▁set	-689
ists	-690
ced	-691
▁run	-692
▁ann	-693
▁bel	-694
ange	-695
▁those	-696
▁win	-697
iness	-698
cc	-699
ures	-700
ision	-701
▁fam	-702
uss	-703
▁En	-704
orts	-705
ling	-706
hen	-707
ah	-708
iew	-709
ember	-710
▁Is	-711
▁law	-712
▁my	-713
ives	-714
▁found	-715
ina	-716
ned	-717
▁cour	-718
▁Mar	-719
▁Brit	-720
▁eff	-721
▁child	-722
rat	-723
▁well	-724
▁much	-725
▁sm	-726
ween	-727
▁Mon	-728
ics	-729
▁stud	-730
▁sl	-731
▁country	-732
▁This	-733
▁take	-734
▁look	-735
ecut	-736
chool	-737
min	-738
▁gu	-739
▁public	-740
▁then	-741
▁between	-742
▁still	-743
▁Jo	-744
duc	-745
▁sign	-746
▁including	-747
▁way	-748
ather	-749
ered	-750
▁cap	-751
▁state	-752
▁aut	-753
elf	-754
▁team	-755
au	-756
way	-757
hip	-758
▁US	-759
▁during	-760
ility	-761
▁sub	-762
▁ph	-763
▁near	-764
irect	-765
outh	-766
▁start	-767
imes	-768
▁police	-769
▁your	-770
▁Sp	-771
ull	-772
▁president	-773
▁disc	-774
▁ter	-775
▁next	-776
hes	-777
▁9	-778
▁Sh	-779
ex	-780
eb	-781
▁They	-782
med	-783
▁Af	-784
ving	-785
▁med	-786
ants	-787
ular	-788
aj	-789
iel	-790
▁day	-791
ady	-792
nes	-793
▁every	-794
▁num	-795
lear	-796
▁vot	-797
io	-798
oy	-799
▁prop	-800
ush	-801
ised	-802
▁gen	-803
▁head	-804
▁big	-805
ev	-806
ph	-807
▁incre	-808
▁Mc	-809
ister	-810
▁det	-811
▁business	-812
ted	-813
▁United	-814
▁polit	-815
▁tri	-816
ef	-817
ged	-818
▁dep	-819
ird	-820
arter	-821
▁wom	-822
olog	-823
ug	-824
az	-825
▁want	-826
alk	-827
▁ent	-828
ction	-829
ible	-830
orth	-831
▁conf	-832
ency	-833
▁ser	-834
erson	-835
▁resp	-836
ner	-837
▁pay	-838
ty	-839
ll	-840
ames	-841
▁dif	-842
bers	-843
▁market	-844
▁kill	-845
ave	-846
pped	-847
iday	-848
▁sal	-849
ands	-850
▁billion	-851
ative	-852
ret	-853
▁former	-854
▁cur	-855
▁camp	-856
oney	-857
cer	-858
ording	-859
▁care	-860
▁bro	-861
pr	-862
▁good	-863
ont	-864
▁milit	-865
▁At	-866
ever	-867
ury	-868
ief	-869
ross	-870
▁ext	-871
--	-872
emoc	-873
▁direct	-874
▁iss	-875
ean	-876
ivers	-877
loy	-878
velop	-879
▁Rep	-880
▁health	-881
▁know	-882
▁For	-883
per	-884
ific	-885
▁stat	-886
oot	-887
▁recent	-888
▁officials	-889
istan	-890
▁Eu	-891
istr	-892
▁though	-893
ines	-894
ollow	-895
▁oper	-896
▁She	-897
atch	-898
▁open	-899
▁very	-900
▁don	-901
gy	-902
gram	-903
▁American	-904
▁leg	-905
▁President	-906
▁won	-907
▁del	-908
▁Ind	-909
▁around	-910
eth	-911
▁five	-912
▁school	-913
▁news	-914
▁think	-915
osed	-916
ystem	-917
..	-918
▁financ	-919
▁adv	-920
▁left	-921
▁cost	-922
▁Sun	-923
▁put	-924
▁pass	-925
▁Le	-926
atur	-927
▁attack	-928
▁opp	-929
ars	-930
com	-931
line	-932
▁far	-933
ending	-934
▁12	-935
▁another	-936
▁air	-937
▁There	-938
▁fore	-939
▁contin	-940
▁prot	-941
▁fil	-942
att	-943
▁tra	-944
▁mem	-945
▁15	-946
▁reported	-947
▁ris	-948
ger	-949
uesday	-950
▁loc	-951
▁Tuesday	-952
alf	-953
ained	-954
used	-955
▁Europ	-956
▁months	-957
▁follow	-958
▁pri	-959
▁both	-960
aim	-961
hor	-962
▁support	-963
▁inst	-964
▁does	-965
ness	-966
ral	-967
▁Wed	-968
▁Monday	-969
▁these	-970
eep	-971
▁rest	-972
oci	-973
▁job	-974
ces	-975
▁John	-976
▁Sc	-977
▁program	-978
▁six	-979
ves	-980
▁Wednes	-981
▁York	-982
▁Wednesday	-983
ajor	-984
▁manag	-985
▁spok	-986
emocrat	-987
▁11	-988
▁money	-989
ution	-990
▁same	-991
let	-992
ield	-993
▁Friday	-994
▁top	-995
▁deal	-996
▁vis	-997
▁spec	-998
▁meet	-999
ott	-1000
ursday	-1001
▁going	-1002
▁Thursday	-1003
▁develop	-1004
earch	-1005
▁That	-1006
ran	-1007
▁ob	-1008
▁If	-1009
ism	-1010
▁belie	-1011
▁system	-1012
ient	-1013
▁cut	-1014
▁inf	-1015
▁children	-1016
▁dri	-1017
▁rele	-1018
ense	-1019
▁30	-1020
▁fund	-1021
get	-1022
▁too	-1023
▁trans	-1024
▁bank	-1025
▁prof	-1026
▁season	-1027
els	-1028
rol	-1029
▁right	-1030
iam	-1031
ects	-1032
▁power	-1033
urity	-1034
▁allow	-1035
▁pres	-1036
▁announ	-1037
ired	-1038
▁tax	-1039
ys	-1040
▁che	-1041
▁prev	-1042
ries	-1043
▁game	-1044
▁few	-1045
▁use	-1046
ept	-1047
ights	-1048
▁number	-1049
▁used	-1050
rent	-1051
ins	-1052
ually	-1053
uck	-1054
ished	-1055
▁...	-1056
▁dem	-1057
▁Democrat	-1058
aren	-1059
▁financial	-1060
▁days	-1061
▁mov	-1062
over	-1063
▁cre	-1064
▁grow	-1065
▁major	-1066
▁sever	-1067
▁Bar	-1068
pl	-1069
▁hop	-1070
raq	-1071
aign	-1072
ley	-1073
ale	-1074
▁proble	-1075
ains	-1076
▁night	-1077
▁real	-1078
▁est	-1079
▁deb	-1080
▁Iraq	-1081
ploy	-1082
▁life	-1083
▁claim	-1084
▁find	-1085
▁called	-1086
ody	-1087
▁less	-1088
▁record	-1089
ission	-1090
▁Eng	-1091
iver	-1092
▁Bro	-1093
▁try	-1094
▁quarter	-1095
▁ref	-1096
▁family	-1097
▁fac	-1098
▁ra	-1099
▁rece	-1100
ute	-1101
▁past	-1102
▁person	-1103
ages	-1104
▁turn	-1105
▁according	-1106
▁par	-1107
▁expected	-1108
▁China	-1109
▁sw	-1110
▁tak	-1111
▁bre	-1112
▁AP	-1113
▁prom	-1114
▁Q	-1115
te	-1116
▁intern	-1117
▁Comm	-1118
▁dr	-1119
▁campaign	-1120
▁return	-1121
ention	-1122
ession	-1123
▁third	-1124
arge	-1125
ior	-1126
ured	-1127
ering	-1128
ards	-1129
▁av	-1130
▁indust	-1131
▁build	-1132
▁199	-1133
▁som	-1134
▁ban	-1135
▁hand	-1136
▁best	-1137
▁spe	-1138
▁giv	-1139
▁Pol	-1140
▁might	-1141
▁place	-1142
ten	-1143
▁Min	-1144
▁requ	-1145
▁vict	-1146
▁sim	-1147
▁States	-1148
▁ask	-1149
▁inform	-1150
▁great	-1151
▁come	-1152
▁least	-1153
▁ago	-1154
▁early	-1155
ized	-1156
ington	-1157
less	-1158
▁city	-1159
osp	-1160
ians	-1161
til	-1162
▁ed	-1163
▁took	-1164
▁2008	-1165
▁Sunday	-1166
▁poss	-1167
▁appro	-1168
▁exper	-1169
▁Man	-1170
▁Sen	-1171
reen	-1172
ject	-1173
▁main	-1174
▁How	-1175
▁test	-1176
lob	-1177
▁post	-1178
▁South	-1179
▁18	-1180
▁0	-1181
▁points	-1182
view	-1183
▁beh	-1184
▁came	-1185
▁case	-1186
cept	-1187
▁coll	-1188
▁later	-1189
ready	-1190
ience	-1191
echn	-1192
▁quest	-1193
ract	-1194
ck	-1195
▁interest	-1196
▁2009	-1197
ately	-1198
ai	-1199
▁half	-1200
▁military	-1201
▁aff	-1202
ued	-1203
.5	-1204
side	-1205
▁mod	-1206
augh	-1207
ondon	-1208
▁death	-1209
ham	-1210
▁produc	-1211
▁author	-1212
ison	-1213
▁court	-1214
▁small	-1215
ittle	-1216
▁seem	-1217
▁Republic	-1218
▁201	-1219
ases	-1220
▁House	-1221
sh	-1222
artment	-1223
▁without	-1224
▁already	-1225
▁pat	-1226
ided	-1227
▁men	-1228
▁fact	-1229
▁spokes	-1230
ially	-1231
▁move	-1232
▁pop	-1233
ched	-1234
▁trad	-1235
▁British	-1236
alif	-1237
co	-1238
▁happ	-1239
ored	-1240
▁Br	-1241
▁Car	-1242
▁fail	-1243
ived	-1244
ederal	-1245
aining	-1246
▁investig	-1247
ony	-1248
▁differ	-1249
▁hard	-1250
▁political	-1251
▁Gr	-1252
▁Bl	-1253
orp	-1254
▁commun	-1255
▁produ	-1256
ety	-1257
▁col	-1258
▁economic	-1259
ke	-1260
usp	-1261
▁art	-1262
osition	-1263
▁charg	-1264
▁until	-1265
▁Russ	-1266
▁members	-1267
▁Be	-1268
▁sent	-1269
▁current	-1270
▁polic	-1271
une	-1272
▁among	-1273
-1	-1274
rest	-1275
▁companies	-1276
▁agre	-1277
▁never	-1278
▁whether	-1279
ober	-1280
aturday	-1281
▁each	-1282
▁Saturday	-1283
ising	-1284
▁elect	-1285
▁Pro	-1286
▁execut	-1287
▁keep	-1288
by	-1289
▁fall	-1290
▁Co	-1291
cess	-1292
aid	-1293
▁inj	-1294
▁25	-1295
me	-1296
cl	-1297
ator	-1298
▁coun	-1299
▁susp	-1300
▁London	-1301
▁ca	-1302
▁today	-1303
▁press	-1304
▁North	-1305
iversity	-1306
▁women	-1307
oung	-1308
▁Sec	-1309
▁13	-1310
▁Afgh	-1311
▁hour	-1312
ened	-1313
▁added	-1314
▁stand	-1315
▁share	-1316
▁Chr	-1317
▁larg	-1318
▁crit	-1319
▁Ge	-1320
▁away	-1321
▁Wash	-1322
lier	-1323
ertain	-1324
ides	-1325
reet	-1326
ended	-1327
▁14	-1328
▁sk	-1329
▁little	-1330
▁several	-1331
▁economy	-1332
▁Pr	-1333
▁consid	-1334
▁appe	-1335
▁here	-1336
rug	-1337
enn	-1338
ops	-1339
▁security	-1340
▁hit	-1341
▁cond	-1342
▁cred	-1343
▁information	-1344
▁better	-1345
▁local	-1346
▁May	-1347
▁Dav	-1348
▁killed	-1349
▁party	-1350
▁Col	-1351
▁Afghan	-1352
ically	-1353
▁net	-1354
▁concer	-1355
▁Ad	-1356
▁Go	-1357
▁writ	-1358
▁So	-1359
▁Washington	-1360
ots	-1361
▁McC	-1362
lobal	-1363
ump	-1364
▁old	-1365
▁short	-1366
cil	-1367
▁partic	-1368
▁buy	-1369
▁got	-1370
▁16	-1371
▁No	-1372
▁You	-1373
▁chief	-1374
▁level	-1375
aff	-1376
self	-1377
gin	-1378
▁expl	-1379
▁clear	-1380
▁leaders	-1381
ends	-1382
▁Jan	-1383
iol	-1384
▁perform	-1385
▁national	-1386
▁invol	-1387
▁hom	-1388
▁techn	-1389
▁hold	-1390
▁doc	-1391
ike	-1392
▁equ	-1393
▁Intern	-1394
▁house	-1395
ergy	-1396
▁bill	-1397
▁Ab	-1398
▁change	-1399
▁sales	-1400
▁ben	-1401
▁mid	-1402
▁hig	-1403
▁fell	-1404
▁miss	-1405
ones	-1406
ology	-1407
▁organ	-1408
▁final	-1409
▁visit	-1410
▁sold	-1411
ium	-1412
▁likely	-1413
to	-1414
▁rul	-1415
▁Iran	-1416
app	-1417
▁2007	-1418
▁Cl	-1419
▁sing	-1420
idence	-1421
▁Ass	-1422
ults	-1423
▁become	-1424
▁17	-1425
▁free	-1426
ably	-1427
rael	-1428
▁hist	-1429
▁Ph	-1430
▁succ	-1431
ON	-1432
rew	-1433
▁All	-1434
aun	-1435
hern	-1436
▁hum	-1437
▁employ	-1438
▁mar	-1439
▁Wor	-1440
▁Ger	-1441
▁Tr	-1442
ators	-1443
eg	-1444
▁fut	-1445
▁priv	-1446
▁control	-1447
port	-1448
▁sol	-1449
▁area	-1450
istration	-1451
verage	-1452
▁When	-1453
▁went	-1454
▁Israel	-1455
▁taken	-1456
▁let	-1457
▁sit	-1458
▁50	-1459
▁must	-1460
ann	-1461
▁join	-1462
▁West	-1463
sw	-1464
▁loss	-1465
my	-1466
▁One	-1467
▁America	-1468
▁1.	-1469
▁across	-1470
acy	-1471
▁oil	-1472
▁National	-1473
▁val	-1474
▁announced	-1475
head	-1476
▁Cent	-1477
▁plans	-1478
▁sum	-1479
▁prices	-1480
ference	-1481
▁fri	-1482
▁tel	-1483
▁Or	-1484
▁viol	-1485
▁making	-1486
ror	-1487
BC	-1488
▁import	-1489
akes	-1490
inal	-1491
ague	-1492
▁March	-1493
ats	-1494
▁give	-1495
ggest	-1496
eng	-1497
▁book	-1498
▁100	-1499
▁strong	-1500
urch	-1501
▁cust	-1502
▁suggest	-1503
off	-1504
▁admin	-1505
eter	-1506
ech	-1507
▁held	-1508
▁drug	-1509
ize	-1510
▁England	-1511
▁success	-1512
▁Dep	-1513
▁lost	-1514
▁industry	-1515
▁young	-1516
▁appear	-1517
uters	-1518
▁countries	-1519
▁low	-1520
utes	-1521
▁form	-1522
▁Ex	-1523
itions	-1524
▁doll	-1525
▁global	-1526
▁Con	-1527
ees	-1528
▁dist	-1529
▁seen	-1530
▁late	-1531
▁Res	-1532
▁With	-1533
aring	-1534
omb	-1535
ways	-1536
atter	-1537
omin	-1538
▁office	-1539
▁point	-1540
▁enough	-1541
aper	-1542
most	-1543
though	-1544
▁His	-1545
▁full	-1546
▁capital	-1547
▁weeks	-1548
▁met	-1549
▁fur	-1550
▁compet	-1551
▁international	-1552
▁arrest	-1553
▁along	-1554
hest	-1555
ern	-1556
▁order	-1557
▁service	-1558
▁given	-1559
▁impro	-1560
▁chang	-1561
▁po	-1562
▁list	-1563
▁const	-1564
▁consum	-1565
▁times	-1566
▁mus	-1567
▁sen	-1568
▁World	-1569
▁eas	-1570
▁Bush	-1571
hers	-1572
▁close	-1573
▁European	-1574
▁Clin	-1575
▁pros	-1576
ourn	-1577
▁Geor	-1578
▁really	-1579
uel	-1580
ball	-1581
▁threat	-1582
thing	-1583
▁fire	-1584
▁statement	-1585
bo	-1586
▁view	-1587
ospital	-1588
▁dou	-1589
ait	-1590
▁Mich	-1591
▁working	-1592
▁decision	-1593
▁line	-1594
▁ant	-1595
▁water	-1596
▁Dec	-1597
▁es	-1598
iving	-1599
ified	-1600
ares	-1601
▁anal	-1602
▁Pal	-1603
ron	-1604
▁UK	-1605
raw	-1606
▁design	-1607
▁services	-1608
ively	-1609
▁stri	-1610
▁spokesman	-1611
ething	-1612
▁alle	-1613
▁conv	-1614
▁led	-1615
▁After	-1616
▁died	-1617
▁City	-1618
uly	-1619
▁Har	-1620
▁earlier	-1621
▁tal	-1622
▁saf	-1623
ounds	-1624
▁sell	-1625
▁jud	-1626
inc	-1627
▁gener	-1628
▁event	-1629
▁election	-1630
▁leader	-1631
be	-1632
▁insur	-1633
ffic	-1634
ival	-1635
▁Pak	-1636
▁region	-1637
▁future	-1638
▁Afric	-1639
▁known	-1640
▁Ang	-1641
ried	-1642
▁nation	-1643
pite	-1644
yp	-1645
▁fig	-1646
▁University	-1647
▁taking	-1648
ming	-1649
▁site	-1650
▁saying	-1651
▁face	-1652
ances	-1653
▁complet	-1654
▁Britain	-1655
ential	-1656
▁Fl	-1657
▁cand	-1658
iod	-1659
▁Aust	-1660
▁risk	-1661
▁Sept	-1662
▁federal	-1663
▁nearly	-1664
▁Pakistan	-1665
▁Calif	-1666
▁Clinton	-1667
▁previous	-1668
▁meeting	-1669
▁having	-1670
▁director	-1671
▁mor	-1672
imate	-1673
▁40	-1674
▁ve	-1675
iron	-1676
▁pot	-1677
▁Am	-1678
aps	-1679
▁emer	-1680
▁Police	-1681
▁food	-1682
▁Christ	-1683
▁cris	-1684
▁credit	-1685
▁whose	-1686
▁treat	-1687
▁talk	-1688
itted	-1689
▁something	-1690
▁read	-1691
▁ide	-1692
aul	-1693
▁June	-1694
ring	-1695
▁further	-1696
ruct	-1697
▁once	-1698
ients	-1699
▁char	-1700
▁seven	-1701
▁fight	-1702
▁began	-1703
amed	-1704
yn	-1705
here	-1706
▁behind	-1707
▁Can	-1708
pan	-1709
▁almost	-1710
▁others	-1711
work	-1712
▁German	-1713
▁side	-1714
▁bar	-1715
AS	-1716
▁neg	-1717
▁David	-1718
▁21	-1719
▁pub	-1720
▁hours	-1721
▁due	-1722
▁feel	-1723
▁Will	-1724
▁didn	-1725
apan	-1726
▁trying	-1727
▁price	-1728
▁Gen	-1729
▁Brown	-1730
ata	-1731
▁asked	-1732
ler	-1733
▁Cong	-1734
ead	-1735
wards	-1736
gress	-1737
IN	-1738
▁laun	-1739
▁bas	-1740
-2	-1741
aker	-1742
▁ball	-1743
aged	-1744
▁What	-1745
▁Gu	-1746
▁El	-1747
▁result	-1748
▁question	-1749
ying	-1750
▁different	-1751
hel	-1752
▁often	-1753
▁Japan	-1754
ds	-1755
▁increase	-1756
▁Reuters	-1757
pril	-1758
pping	-1759
▁period	-1760
▁lot	-1761
af	-1762
ulation	-1763
▁games	-1764
▁2006	-1765
▁meas	-1766
irl	-1767
empt	-1768
▁rate	-1769
▁yet	-1770
▁policy	-1771
▁special	-1772
▁State	-1773
mp	-1774
▁Some	-1775
▁tot	-1776
▁candid	-1777
▁effect	-1778
lex	-1779
ences	-1780
▁dead	-1781
uary	-1782
▁April	-1783
▁eng	-1784
▁star	-1785
▁process	-1786
ille	-1787
osing	-1788
crib	-1789
▁able	-1790
ene	-1791
PI	-1792
▁Bank	-1793
▁foreign	-1794
▁foot	-1795
▁Afghanistan	-1796
▁issue	-1797
▁lim	-1798
▁24	-1799
▁reb	-1800
▁woman	-1801
▁vote	-1802
rem	-1803
retary	-1804
ael	-1805
▁custom	-1806
▁banks	-1807
▁activ	-1808
▁large	-1809
▁bor	-1810
▁believe	-1811
▁land	-1812
▁media	-1813
▁within	-1814
▁tro	-1815
ature	-1816
rup	-1817
▁crisis	-1818
▁executive	-1819
▁benef	-1820
▁Med	-1821
sel	-1822
▁avail	-1823
ittee	-1824
▁White	-1825
▁eight	-1826
gency	-1827
▁infl	-1828
ories	-1829
ivil	-1830
▁break	-1831
▁ur	-1832
▁series	-1833
▁important	-1834
fic	-1835
icle	-1836
lood	-1837
lish	-1838
aster	-1839
ocial	-1840
▁energy	-1841
orters	-1842
▁22	-1843
▁following	-1844
oon	-1845
▁Department	-1846
▁occ	-1847
akers	-1848
▁repres	-1849
▁things	-1850
▁class	-1851
iqu	-1852
ourt	-1853
▁administration	-1854
▁coup	-1855
▁private	-1856
iers	-1857
ane	-1858
asing	-1859
▁arg	-1860
▁town	-1861
▁results	-1862
▁div	-1863
ne	-1864
▁road	-1865
▁Sw	-1866
▁thought	-1867
▁paren	-1868
▁outside	-1869
ners	-1870
▁Oct	-1871
iber	-1872
▁expect	-1873
▁ever	-1874
▁why	-1875
▁concern	-1876
▁shot	-1877
▁chall	-1878
itional	-1879
gest	-1880
▁Dr	-1881
▁Ed	-1882
▁film	-1883
▁demand	-1884
par	-1885
▁However	-1886
time	-1887
▁Inc	-1888
▁released	-1889
ither	-1890
▁club	-1891
▁non	-1892
▁always	-1893
▁July	-1894
▁key	-1895
▁discuss	-1896
▁staff	-1897
for	-1898
aced	-1899
▁suff	-1900
atives	-1901
stand	-1902
▁possible	-1903
▁cor	-1904
umb	-1905
▁using	-1906
▁include	-1907
▁January	-1908
▁study	-1909
▁Europe	-1910
back	-1911
.2	-1912
▁UPI	-1913
▁env	-1914
▁problems	-1915
▁based	-1916
▁targ	-1917
itive	-1918
▁players	-1919
ester	-1920
▁offer	-1921
▁Associ	-1922
▁human	-1923
▁minutes	-1924
ements	-1925
▁markets	-1926
elt	-1927
▁dev	-1928
▁foc	-1929
▁198	-1930
▁higher	-1931
lished	-1932
arm	-1933
▁opt	-1934
▁serious	-1935
▁Kore	-1936
uclear	-1937
▁problem	-1938
▁Congress	-1939
▁mother	-1940
▁Bo	-1941
▁bring	-1942
▁ren	-1943
iet	-1944
▁leading	-1945
▁McCain	-1946
▁To	-1947
▁growth	-1948
▁gas	-1949
go	-1950
ging	-1951
▁available	-1952
▁Minister	-1953
▁dro	-1954
ortun	-1955
ensive	-1956
▁Par	-1957
▁tell	-1958
epend	-1959
▁bad	-1960
▁Aug	-1961
▁Californ	-1962
▁sn	-1963
bs	-1964
▁black	-1965
▁mean	-1966
▁ident	-1967
▁sex	-1968
dle	-1969
ought	-1970
▁2010	-1971
lam	-1972
▁hot	-1973
▁host	-1974
cast	-1975
int	-1976
▁forces	-1977
▁costs	-1978
▁adm	-1979
.3	-1980
of	-1981
ironment	-1982
▁certain	-1983
ening	-1984
▁Street	-1985
▁authorities	-1986
isc	-1987
▁room	-1988
▁workers	-1989
▁Pl	-1990
igr	-1991
ality	-1992
sc	-1993
▁started	-1994
ades	-1995
▁Count	-1996
▁reports	-1997
▁contract	-1998
▁broad	-1999
down	-2000
▁particular	-2001
▁history	-2002
▁research	-2003
▁Court	-2004
▁prison	-2005
▁looking	-2006
▁ste	-2007
ribut	-2008
▁hospital	-2009
▁Feb	-2010
▁fav	-2011
▁September	-2012
▁provide	-2013
▁cho	-2014
▁civil	-2015
raft	-2016
▁My	-2017
raph	-2018
▁Austral	-2019
▁ple	-2020
▁body	-2021
▁victory	-2022
▁California	-2023
▁building	-2024
▁mom	-2025
▁nuclear	-2026
▁getting	-2027
▁minister	-2028
▁ahead	-2029
inese	-2030
▁travel	-2031
▁stay	-2032
▁December	-2033
▁Air	-2034
ney	-2035
rench	-2036
iding	-2037
mber	-2038
▁course	-2039
▁jobs	-2040
▁den	-2041
ability	-2042
▁role	-2043
▁general	-2044
▁average	-2045
▁biggest	-2046
ressed	-2047
▁vide	-2048
▁music	-2049
▁gave	-2050
▁continue	-2051
.4	-2052
▁present	-2053
aud	-2054
▁Se	-2055
▁dam	-2056
▁groups	-2057
▁Republican	-2058
▁received	-2059
▁hous	-2060
▁total	-2061
▁name	-2062
ilar	-2063
▁diffic	-2064
emp	-2065
▁hope	-2066
ims	-2067
ached	-2068
ese	-2069
▁Ms	-2070
cy	-2071
▁relations	-2072
▁champ	-2073
▁Chinese	-2074
▁difficult	-2075
▁rights	-2076
orpor	-2077
▁largest	-2078
▁troops	-2079
ware	-2080
▁recently	-2081
▁front	-2082
ung	-2083
ovember	-2084
▁spending	-2085
▁done	-2086
based	-2087
▁begin	-2088
▁23	-2089
▁data	-2090
▁terror	-2091
▁Democratic	-2092
▁Just	-2093
▁repl	-2094
▁live	-2095
ford	-2096
▁famil	-2097
▁ap	-2098
▁fourth	-2099
den	-2100
▁girl	-2101
▁mort	-2102
▁November	-2103
.1	-2104
▁students	-2105
▁poll	-2106
▁talks	-2107
▁rather	-2108
▁comes	-2109
▁colle	-2110
▁charges	-2111
▁became	-2112
ij	-2113
▁chair	-2114
▁lat	-2115
▁Angel	-2116
hing	-2117
▁While	-2118
▁comb	-2119
▁Ste	-2120
▁agency	-2121
▁forward	-2122
▁init	-2123
▁wind	-2124
▁step	-2125
▁educ	-2126
▁veh	-2127
atic	-2128
ape	-2129
▁lower	-2130
▁Michael	-2131
▁field	-2132
▁interview	-2133
▁wife	-2134
▁gl	-2135
oint	-2136
▁describ	-2137
uff	-2138
▁De	-2139
▁respons	-2140
▁himself	-2141
rupt	-2142
read	-2143
▁War	-2144
medi	-2145
duct	-2146
▁prob	-2147
▁senior	-2148
▁played	-2149
▁detail	-2150
▁fre	-2151
idents	-2152
▁signific	-2153
nings	-2154
▁mess	-2155
▁quick	-2156
▁action	-2157
▁er	-2158
ibility	-2159
▁San	-2160
▁bomb	-2161
▁firm	-2162
▁Pe	-2163
AN	-2164
▁International	-2165
▁arri	-2166
▁Part	-2167
▁force	-2168
▁French	-2169
▁vol	-2170
▁deter	-2171
ids	-2172
ett	-2173
▁seek	-2174
▁sour	-2175
.7	-2176
▁Sm	-2177
▁cover	-2178
▁conference	-2179
OR	-2180
▁pain	-2181
▁Senate	-2182
▁board	-2183
▁pract	-2184
ined	-2185
▁community	-2186
oring	-2187
▁thous	-2188
▁Americans	-2189
▁Ro	-2190
▁morning	-2191
estern	-2192
▁telev	-2193
ales	-2194
▁walk	-2195
ream	-2196
▁latest	-2197
▁however	-2198
ches	-2199
▁evidence	-2200
ighb	-2201
▁goal	-2202
▁coming	-2203
▁strate	-2204
▁race	-2205
▁states	-2206
ector	-2207
selves	-2208
▁compl	-2209
▁27	-2210
ization	-2211
▁unc	-2212
▁issues	-2213
▁Hill	-2214
▁showed	-2215
isl	-2216
▁needed	-2217
▁exc	-2218
irc	-2219
▁father	-2220
▁East	-2221
▁60	-2222
▁simp	-2223
▁confir	-2224
▁rose	-2225
▁thing	-2226
▁toget	-2227
▁together	-2228
▁stock	-2229
rap	-2230
ional	-2231
hold	-2232
▁lear	-2233
uge	-2234
.6	-2235
rong	-2236
ery	-2237
▁pack	-2238
oman	-2239
▁age	-2240
▁represent	-2241
▁kind	-2242
▁doesn	-2243
ari	-2244
▁Russia	-2245
aving	-2246
▁Democrats	-2247
▁cash	-2248
ests	-2249
▁investment	-2250
▁pred	-2251
▁Coun	-2252
▁October	-2253
▁sure	-2254
ournal	-2255
▁access	-2256
▁compared	-2257
uation	-2258
▁emb	-2259
amer	-2260
rugg	-2261
▁Paul	-2262
ination	-2263
▁fear	-2264
▁account	-2265
eleb	-2266
▁doing	-2267
▁tour	-2268
▁despite	-2269
▁watch	-2270
▁significant	-2271
attle	-2272
▁red	-2273
▁phot	-2274
▁pick	-2275
▁disp	-2276
▁attacks	-2277
▁mur	-2278
▁areas	-2279
ges	-2280
▁August	-2281
▁immedi	-2282
▁career	-2283
▁online	-2284
ament	-2285
uk	-2286
rel	-2287
esterday	-2288
▁attempt	-2289
▁bud	-2290
tain	-2291
▁round	-2292
▁Jack	-2293
ze	-2294
▁running	-2295
▁involved	-2296
▁match	-2297
iff	-2298
▁propert	-2299
▁France	-2300
rought	-2301
stit	-2302
▁story	-2303
.9	-2304
▁rev	-2305
▁Lab	-2306
▁legal	-2307
▁social	-2308
▁comment	-2309
▁single	-2310
▁tit	-2311
oti	-2312
ww	-2313
▁parents	-2314
▁neighb	-2315
▁News	-2316
▁reven	-2317
▁technology	-2318
▁wanted	-2319
▁tw	-2320
▁spent	-2321
▁development	-2322
▁investors	-2323
▁miles	-2324
▁dollars	-2325
▁clos	-2326
▁analyst	-2327
▁Rober	-2328
▁rates	-2329
▁stop	-2330
▁similar	-2331
vert	-2332
▁makes	-2333
▁www	-2334
▁26	-2335
▁TV	-2336
▁Mark	-2337
▁critic	-2338
▁squ	-2339
ING	-2340
uses	-2341
▁arrested	-2342
ift	-2343
▁deep	-2344
▁rad	-2345
▁Hol	-2346
▁appeared	-2347
▁ground	-2348
itting	-2349
▁Ham	-2350
▁summer	-2351
▁Web	-2352
▁heart	-2353
▁light	-2354
ym	-2355
▁manager	-2356
▁release	-2357
▁lab	-2358
▁saw	-2359
▁nine	-2360
▁performance	-2361
▁scored	-2362
icted	-2363
▁2005	-2364
.8	-2365
ask	-2366
aces	-2367
▁store	-2368
▁Ital	-2369
▁fun	-2370
▁newsp	-2371
▁products	-2372
▁soon	-2373
▁turned	-2374
▁enc	-2375
▁shares	-2376
▁Mo	-2377
▁mass	-2378
▁typ	-2379
▁imm	-2380
▁1,	-2381
50	-2382
▁independ	-2383
▁presidential	-2384
▁Mor	-2385
▁mot	-2386
undred	-2387
▁prep	-2388
▁failed	-2389
▁28	-2390
▁Tal	-2391
▁William	-2392
pec	-2393
▁Now	-2394
ilt	-2395
▁needs	-2396
▁position	-2397
▁India	-2398
aur	-2399
ule	-2400
▁mortg	-2401
▁homes	-2402
▁bit	-2403
▁Per	-2404
▁31	-2405
▁son	-2406
ote	-2407
ault	-2408
▁environment	-2409
▁estim	-2410
liam	-2411
ruary	-2412
▁cases	-2413
▁paid	-2414
▁target	-2415
▁although	-2416
▁trade	-2417
▁port	-2418
▁project	-2419
▁pos	-2420
istrict	-2421
▁strugg	-2422
▁cle	-2423
▁remain	-2424
avy	-2425
▁197	-2426
aled	-2427
liament	-2428
mark	-2429
▁hol	-2430
▁February	-2431
▁television	-2432
aughter	-2433
▁celeb	-2434
uty	-2435
▁review	-2436
-0	-2437
▁agreed	-2438
▁regul	-2439
▁accused	-2440
omm	-2441
ural	-2442
▁dest	-2443
▁Her	-2444
▁gun	-2445
▁trip	-2446
ivid	-2447
▁debt	-2448
▁prosecut	-2449
▁prim	-2450
lymp	-2451
rown	-2452
▁Times	-2453
▁thousands	-2454
ico	-2455
▁reason	-2456
▁helped	-2457
iting	-2458
▁Cons	-2459
▁means	-2460
▁pressure	-2461
▁County	-2462
▁efforts	-2463
▁member	-2464
▁Fin	-2465
▁improve	-2466
▁Park	-2467
▁doct	-2468
▁CN	-2469
▁accept	-2470
▁Olymp	-2471
▁beat	-2472
itch	-2473
▁reach	-2474
lement	-2475
kn	-2476
▁investigation	-2477
▁Los	-2478
▁sched	-2479
▁experience	-2480
▁mag	-2481
▁medical	-2482
bn	-2483
▁peace	-2484
wh	-2485
▁friends	-2486
vey	-2487
▁Council	-2488
▁Barack	-2489
▁Cap	-2490
▁Sch	-2491
oking	-2492
▁ended	-2493
▁lawy	-2494
orney	-2495
▁track	-2496
wood	-2497
▁potential	-2498
band	-2499
fact	-2500
▁aud	-2501
▁legisl	-2502
ecess	-2503
▁popular	-2504
▁Rich	-2505
▁schools	-2506
▁themselves	-2507
▁trial	-2508
ray	-2509
enal	-2510
▁slow	-2511
▁yesterday	-2512
bur	-2513
▁production	-2514
▁vers	-2515
-3	-2516
▁opportun	-2517
▁Mus	-2518
▁docu	-2519
▁orig	-2520
▁base	-2521
▁negoti	-2522
▁Mex	-2523
▁nothing	-2524
orthern	-2525
ada	-2526
▁conc	-2527
▁officers	-2528
▁Sup	-2529
anger	-2530
▁govern	-2531
▁Serv	-2532
sy	-2533
▁Pat	-2534
▁agreement	-2535
▁BBC	-2536
▁chance	-2537
▁allowed	-2538
▁brought	-2539
▁Islam	-2540
▁personal	-2541
val	-2542
▁Angeles	-2543
▁By	-2544
▁GM	-2545
▁weekend	-2546
▁George	-2547
▁bur	-2548
change	-2549
▁Not	-2550
▁Cup	-2551
▁leave	-2552
▁video	-2553
▁patients	-2554
▁League	-2555
pect	-2556
▁tre	-2557
ago	-2558
▁Phil	-2559
▁redu	-2560
▁network	-2561
ald	-2562
wide	-2563
▁rise	-2564
amb	-2565
▁More	-2566
▁Ser	-2567
▁doub	-2568
▁insurance	-2569
▁customers	-2570
▁murder	-2571
▁increasing	-2572
▁alleged	-2573
imb	-2574
▁sett	-2575
ude	-2576
▁Ne	-2577
ruction	-2578
▁Compan	-2579
ample	-2580
uit	-2581
alled	-2582
▁cann	-2583
eration	-2584
▁worked	-2585
ently	-2586
▁Red	-2587
ises	-2588
TON	-2589
room	-2590
▁shoot	-2591
rid	-2592
▁opposition	-2593
▁ill	-2594
▁carry	-2595
▁remains	-2596
▁value	-2597
ceed	-2598
▁couple	-2599
▁wants	-2600
▁shows	-2601
▁published	-2602
▁included	-2603
▁claims	-2604
▁probably	-2605
New	-2606
▁reform	-2607
▁worth	-2608
▁central	-2609
▁Qu	-2610
▁indic	-2611
▁violence	-2612
ana	-2613
▁search	-2614
▁annual	-2615
▁increased	-2616
▁north	-2617
irst	-2618
oud	-2619
▁super	-2620
▁ey	-2621
▁white	-2622
▁Acc	-2623
▁voters	-2624
▁surpr	-2625
▁Last	-2626
▁charged	-2627
▁lives	-2628
the	-2629
▁Center	-2630
▁idea	-2631
ilities	-2632
▁longer	-2633
▁seems	-2634
▁CNN	-2635
▁poor	-2636
▁tried	-2637
▁individ	-2638
▁Ken	-2639
▁surv	-2640
pecially	-2641
▁Ear	-2642
▁charge	-2643
erve	-2644
▁growing	-2645
unt	-2646
aging	-2647
▁James	-2648
ows	-2649
▁playing	-2650
uing	-2651
▁forced	-2652
▁Ber	-2653
▁Government	-2654
▁phone	-2655
▁stra	-2656
▁Two	-2657
▁Mic	-2658
ips	-2659
▁space	-2660
▁coach	-2661
outhern	-2662
▁laws	-2663
▁operations	-2664
▁propos	-2665
iec	-2666
▁living	-2667
▁hundred	-2668
▁cult	-2669
ogn	-2670
▁mult	-2671
yle	-2672
▁either	-2673
lined	-2674
▁moment	-2675
chers	-2676
▁effort	-2677
▁General	-2678
▁tur	-2679
▁budget	-2680
▁i	-2681
▁extra	-2682
▁Thom	-2683
▁Te	-2684
▁circ	-2685
▁management	-2686
▁Tex	-2687
▁sat	-2688
▁29	-2689
aded	-2690
ounded	-2691
ris	-2692
mit	-2693
▁2004	-2694
utions	-2695
ox	-2696
▁cell	-2697
▁deliver	-2698
▁common	-2699
onst	-2700
▁anything	-2701
▁Africa	-2702
▁changes	-2703
istic	-2704
ander	-2705
ida	-2706
▁Group	-2707
▁z	-2708
ograph	-2709
▁wait	-2710
ension	-2711
▁Fed	-2712
▁conn	-2713
▁cause	-2714
▁player	-2715
ster	-2716
eed	-2717
ify	-2718
▁matter	-2719
▁funds	-2720
fully	-2721
mon	-2722
▁fuel	-2723
▁chairman	-2724
▁conditions	-2725
▁App	-2726
▁Mart	-2727
imin	-2728
using	-2729
▁prevent	-2730
▁especially	-2731
AR	-2732
▁heard	-2733
▁officer	-2734
▁celebr	-2735
pro	-2736
▁ens	-2737
AT	-2738
▁disapp	-2739
haps	-2740
▁Secretary	-2741
▁boy	-2742
▁figures	-2743
▁recession	-2744
▁di	-2745
▁moved	-2746
overed	-2747
▁families	-2748
▁council	-2749
▁assist	-2750
ider	-2751
▁protect	-2752
▁bid	-2753
▁impact	-2754
reg	-2755
▁Even	-2756
▁education	-2757
▁anti	-2758
▁mater	-2759
▁avo	-2760
▁trou	-2761
▁Health	-2762
ole	-2763
ER	-2764
▁mer	-2765
▁safety	-2766
hood	-2767
duced	-2768
jects	-2769
▁Wall	-2770
▁vir	-2771
olution	-2772
▁levels	-2773
na	-2774
▁friend	-2775
▁Korea	-2776
▁Commission	-2777
ease	-2778
▁Scott	-2779
▁someone	-2780
▁training	-2781
▁Company	-2782
▁lack	-2783
▁green	-2784
▁Indian	-2785
▁understand	-2786
▁PR	-2787
aily	-2788
▁scient	-2789
▁Germany	-2790
▁abs	-2791
▁reve	-2792
▁raised	-2793
▁address	-2794
▁wrong	-2795
▁cancer	-2796
▁south	-2797
▁These	-2798
▁Gl	-2799
field	-2800
▁Scot	-2801
▁decided	-2802
raz	-2803
▁refer	-2804
▁Des	-2805
▁contr	-2806
▁mat	-2807
ocked	-2808
▁newspaper	-2809
▁huge	-2810
cement	-2811
▁hur	-2812
▁cross	-2813
swire	-2814
▁Mid	-2815
ufact	-2816
atory	-2817
▁calls	-2818
▁Ben	-2819
▁park	-2820
▁contribut	-2821
ender	-2822
▁eu	-2823
▁separ	-2824
▁Tre	-2825
▁anyone	-2826
▁straight	-2827
Newswire	-2828
▁weap	-2829
▁profit	-2830
▁pan	-2831
▁500	-2832
▁Russian	-2833
▁example	-2834
▁Union	-2835
▁income	-2836
▁challen	-2837
sp	-2838
▁Char	-2839
▁closed	-2840
▁amb	-2841
▁stage	-2842
▁property	-2843
chie	-2844
▁treatment	-2845
itness	-2846
▁trading	-2847
▁questions	-2848
▁product	-2849
▁rules	-2850
▁sho	-2851
▁acqu	-2852
▁196	-2853
ires	-2854
▁Flor	-2855
▁concerns	-2856
▁Mer	-2857
oming	-2858
ota	-2859
▁Off	-2860
▁love	-2861
▁actually	-2862
▁Texas	-2863
▁soldiers	-2864
▁amount	-2865
iban	-2866
▁Mil	-2867
▁described	-2868
enced	-2869
term	-2870
▁hon	-2871
men	-2872
iant	-2873
eph	-2874
▁Many	-2875
-4	-2876
▁35	-2877
itor	-2878
▁climate	-2879
▁inside	-2880
▁terms	-2881
▁feat	-2882
▁Bill	-2883
hol	-2884
▁center	-2885
▁rock	-2886
▁Mad	-2887
▁judge	-2888
overy	-2889
▁consider	-2890
▁cannot	-2891
vest	-2892
▁opening	-2893
lines	-2894
ellig	-2895
▁conduct	-2896
▁soft	-2897
ope	-2898
iled	-2899
eck	-2900
ocks	-2901
obile	-2902
▁draw	-2903
▁above	-2904
▁answ	-2905
alt	-2906
▁Em	-2907
▁believed	-2908
▁retail	-2909
merc	-2910
lying	-2911
▁situation	-2912
ugh	-2913
▁followed	-2914
aries	-2915
▁crow	-2916
▁particularly	-2917
▁check	-2918
estin	-2919
▁Prime	-2920
oke	-2921
BS	-2922
▁nomin	-2923
▁conserv	-2924
▁Smith	-2925
▁cal	-2926
▁fans	-2927
arent	-2928
▁Taliban	-2929
▁Roy	-2930
aut	-2931
▁events	-2932
▁hus	-2933
makers	-2934
arp	-2935
▁spot	-2936
▁station	-2937
bed	-2938
▁Florida	-2939
▁Black	-2940
▁entire	-2941
▁rout	-2942
▁recogn	-2943
onse	-2944
▁hands	-2945
▁mind	-2946
▁stre	-2947
istry	-2948
▁ran	-2949
▁giving	-2950
oo	-2951
▁offered	-2952
▁runs	-2953
icles	-2954
uled	-2955
▁anim	-2956
▁exist	-2957
▁create	-2958
while	-2959
▁currently	-2960
▁estab	-2961
▁associ	-2962
▁70	-2963
▁Robert	-2964
▁Republicans	-2965
▁Op	-2966
▁quickly	-2967
▁achie	-2968
▁daughter	-2969
▁Corp	-2970
▁border	-2971
▁itself	-2972
▁drive	-2973
▁works	-2974
▁aid	-2975
▁vac	-2976
▁continued	-2977
▁Vir	-2978
▁intro	-2979
▁flo	-2980
▁link	-2981
▁relationship	-2982
▁regular	-2983
ipp	-2984
▁MP	-2985
etro	-2986
▁Internet	-2987
isions	-2988
set	-2989
▁Tur	-2990
.0	-2991
▁NE	-2992
ials	-2993
▁instead	-2994
▁named	-2995
▁manufact	-2996
▁unl	-2997
▁winning	-2998
▁cars	-2999
▁mill	-3000
▁pict	-3001
▁self	-3002
▁danger	-3003
▁Press	-3004
▁respond	-3005
▁title	-3006
▁warned	-3007
ders	-3008
▁sector	-3009
▁blood	-3010
▁influ	-3011
▁touch	-3012
▁Don	-3013
ston	-3014
▁caused	-3015
▁Chic	-3016
▁candidate	-3017
▁Green	-3018
▁Aut	-3019
▁term	-3020
ounts	-3021
▁push	-3022
▁housing	-3023
▁Labour	-3024
▁Jones	-3025
▁majority	-3026
rote	-3027
ption	-3028
▁employees	-3029
▁mis	-3030
itz	-3031
INGTON	-3032
aught	-3033
▁purch	-3034
▁creat	-3035
▁returned	-3036
▁claimed	-3037
▁businesses	-3038
▁drop	-3039
▁Party	-3040
▁includes	-3041
▁mortgage	-3042
ASH	-3043
▁prime	-3044
▁repe	-3045
▁School	-3046
▁whole	-3047
atural	-3048
▁require	-3049
▁Other	-3050
▁weak	-3051
▁numbers	-3052
▁reached	-3053
▁double	-3054
▁instit	-3055
▁applic	-3056
▁Dan	-3057
▁details	-3058
▁Australia	-3059
▁approach	-3060
▁wear	-3061
come	-3062
uter	-3063
▁80	-3064
ona	-3065
▁charac	-3066
▁phys	-3067
▁killing	-3068
▁resear	-3069
▁planned	-3070
▁husband	-3071
unk	-3072
▁elections	-3073
▁Net	-3074
▁sense	-3075
▁Association	-3076
▁card	-3077
uries	-3078
▁residents	-3079
▁EU	-3080
▁Scotland	-3081
▁2003	-3082
▁football	-3083
▁encour	-3084
▁score	-3085
ociety	-3086
▁Chicago	-3087
lom	-3088
▁Palestin	-3089
▁corpor	-3090
▁incident	-3091
▁commerc	-3092
▁journal	-3093
▁response	-3094
▁flu	-3095
▁prem	-3096
▁dropped	-3097
oul	-3098
▁range	-3099
▁wrote	-3100
▁debate	-3101
▁drugs	-3102
▁Gold	-3103
▁raise	-3104
▁Act	-3105
▁Iraqi	-3106
▁webs	-3107
ills	-3108
▁immediately	-3109
▁fair	-3110
lant	-3111
▁fast	-3112
▁WASH	-3113
▁People	-3114
▁WASHINGTON	-3115
▁opened	-3116
▁pers	-3117
▁cuts	-3118
▁teams	-3119
▁Rob	-3120
▁grand	-3121
unch	-3122
▁confirmed	-3123
asons	-3124
joy	-3125
jected	-3126
▁dom	-3127
▁engine	-3128
ara	-3129
icket	-3130
▁Johnson	-3131
rian	-3132
▁aim	-3133
reme	-3134
▁esc	-3135
▁counter	-3136
elling	-3137
ES	-3138
▁focus	-3139
▁built	-3140
▁particip	-3141
▁survey	-3142
▁launch	-3143
iance	-3144
emb	-3145
▁happened	-3146
▁necess	-3147
▁Mur	-3148
▁considered	-3149
▁committee	-3150
▁sel	-3151
▁High	-3152
▁Do	-3153
▁profession	-3154
▁boost	-3155
rief	-3156
▁gold	-3157
▁Richard	-3158
▁Tom	-3159
▁Offic	-3160
illeg	-3161
▁Arab	-3162
▁isn	-3163
▁resc	-3164
rial	-3165
▁condition	-3166
▁shut	-3167
▁vill	-3168
▁Although	-3169
▁Fore	-3170
cher	-3171
▁Virgin	-3172
ode	-3173
airs	-3174
▁defe	-3175
estic	-3176
▁assets	-3177
ipped	-3178
▁Sim	-3179
▁Cr	-3180
▁attorney	-3181
▁plant	-3182
▁hundreds	-3183
▁additional	-3184
ading	-3185
night	-3186
▁attract	-3187
bon	-3188
▁loans	-3189
▁Israeli	-3190
▁speech	-3191
tt	-3192
ky	-3193
hester	-3194
house	-3195
▁Jackson	-3196
▁wasn	-3197
▁simply	-3198
▁decl	-3199
▁African	-3200
play	-3201
▁capt	-3202
▁King	-3203
▁lif	-3204
▁everyone	-3205
▁Mexico	-3206
▁pul	-3207
▁illeg	-3208
zz	-3209
▁enjoy	-3210
▁sto	-3211
aine	-3212
▁reduce	-3213
berg	-3214
▁norm	-3215
▁Dar	-3216
▁signed	-3217
inks	-3218
▁parliament	-3219
ionship	-3220
▁Wood	-3221
▁worst	-3222
irth	-3223
▁32	-3224
▁sale	-3225
▁award	-3226
▁appeal	-3227
▁teac	-3228
cel	-3229
▁Of	-3230
▁bott	-3231
▁leaving	-3232
▁progress	-3233
▁everything	-3234
▁battle	-3235
hib	-3236
▁attention	-3237
▁brok	-3238
▁cents	-3239
▁movie	-3240
▁demonst	-3241
▁hear	-3242
▁decades	-3243
▁doz	-3244
▁bal	-3245
▁NEW	-3246
▁Committee	-3247
▁middle	-3248
▁quite	-3249
iation	-3250
▁takes	-3251
▁experts	-3252
▁refl	-3253
▁consumer	-3254
▁seeking	-3255
▁created	-3256
▁Def	-3257
▁Federal	-3258
▁dip	-3259
body	-3260
▁analysts	-3261
▁Most	-3262
▁brother	-3263
▁fighting	-3264
▁teen	-3265
▁parties	-3266
▁benefits	-3267
elligence	-3268
▁consumers	-3269
▁looked	-3270
▁scheduled	-3271
▁respect	-3272
▁injured	-3273
▁Georg	-3274
▁prior	-3275
▁rising	-3276
▁La	-3277
woman	-3278
▁mount	-3279
▁contact	-3280
▁revenue	-3281
▁hearing	-3282
▁hopes	-3283
itiz	-3284
▁English	-3285
ijing	-3286
▁measures	-3287
▁coal	-3288
shire	-3289
lands	-3290
▁launched	-3291
▁gone	-3292
▁parts	-3293
▁advert	-3294
▁45	-3295
▁losses	-3296
▁feet	-3297
▁Beijing	-3298
▁sche	-3299
▁save	-3300
iter	-3301
▁ability	-3302
▁relig	-3303
de	-3304
▁filed	-3305
▁defense	-3306
encies	-3307
▁programs	-3308
yc	-3309
action	-3310
▁PRNewswire	-3311
ams	-3312
▁article	-3313
▁emergency	-3314
▁index	-3315
▁jail	-3316
resh	-3317
light	-3318
▁population	-3319
▁box	-3320
▁Sir	-3321
▁suffered	-3322
▁version	-3323
ancy	-3324
▁commission	-3325
anced	-3326
ashed	-3327
▁According	-3328
ume	-3329
ogle	-3330
ino	-3331
▁Research	-3332
▁toward	-3333
▁Treas	-3334
reng	-3335
arily	-3336
agh	-3337
orks	-3338
▁Office	-3339
▁injury	-3340
▁clean	-3341
▁vo	-3342
▁disease	-3343
▁bab	-3344
ny	-3345
▁felt	-3346
ding	-3347
▁dollar	-3348
▁Musl	-3349
▁jump	-3350
▁issued	-3351
▁passed	-3352
BI	-3353
▁reporters	-3354
▁independent	-3355
illed	-3356
etimes	-3357
▁starting	-3358
▁90	-3359
isted	-3360
▁train	-3361
▁legislation	-3362
isters	-3363
ental	-3364
issions	-3365
▁kept	-3366
ites	-3367
▁paper	-3368
▁ways	-3369
▁sil	-3370
ushed	-3371
oted	-3372
▁expand	-3373
▁Tw	-3374
right	-3375
erry	-3376
▁dism	-3377
▁commercial	-3378
▁victims	-3379
▁Kar	-3380
▁figure	-3381
employ	-3382
▁operating	-3383
▁competition	-3384
oph	-3385
▁strike	-3386
alls	-3387
▁crime	-3388
▁estimated	-3389
che	-3390
▁centre	-3391
▁recomm	-3392
▁army	-3393
▁Mal	-3394
▁insp	-3395
▁piec	-3396
ique	-3397
iminal	-3398
▁contro	-3399
▁message	-3400
▁Google	-3401
ki	-3402
▁dig	-3403
▁Bur	-3404
▁Carol	-3405
20	-3406
acing	-3407
▁avoid	-3408
▁Som	-3409
adem	-3410
▁bail	-3411
▁dog	-3412
▁apparent	-3413
▁regard	-3414
▁wid	-3415
▁pret	-3416
▁autom	-3417
▁streng	-3418
ems	-3419
▁histor	-3420
▁challenge	-3421
▁owners	-3422
run	-3423
▁declined	-3424
▁Kh	-3425
▁spread	-3426
ilty	-3427
▁partners	-3428
▁addition	-3429
icians	-3430
▁advis	-3431
hire	-3432
ishing	-3433
▁consult	-3434
▁seemed	-3435
▁guard	-3436
▁restaur	-3437
▁unf	-3438
icide	-3439
▁hotel	-3440
▁Bay	-3441
gent	-3442
▁else	-3443
▁supporters	-3444
▁highest	-3445
iction	-3446
-6	-3447
▁favor	-3448
▁trust	-3449
▁Prof	-3450
▁immigr	-3451
▁Alex	-3452
▁sle	-3453
acts	-3454
▁2001	-3455
▁opportunity	-3456
▁Since	-3457
▁spend	-3458
ifth	-3459
▁provided	-3460
ban	-3461
▁trib	-3462
▁funding	-3463
▁guilty	-3464
▁weapons	-3465
▁Val	-3466
imately	-3467
urities	-3468
▁obs	-3469
▁crowd	-3470
▁designed	-3471
▁statements	-3472
▁easy	-3473
▁Security	-3474
vent	-3475
▁wat	-3476
▁sens	-3477
▁strik	-3478
▁Rod	-3479
▁Port	-3480
▁perhaps	-3481
essor	-3482
▁candidates	-3483
▁constit	-3484
▁brief	-3485
izing	-3486
▁diplom	-3487
▁driving	-3488
▁strategy	-3489
▁crew	-3490
▁sites	-3491
▁below	-3492
▁Treasury	-3493
▁domestic	-3494
▁quality	-3495
ST	-3496
▁missing	-3497
yan	-3498
▁required	-3499
▁fix	-3500
▁millions	-3501
▁measure	-3502
angu	-3503
▁subs	-3504
iring	-3505
▁ready	-3506
icks	-3507
▁Lou	-3508
▁sharp	-3509
rey	-3510
yond	-3511
▁restr	-3512
▁receive	-3513
ordon	-3514
stitute	-3515
▁Williams	-3516
▁Me	-3517
▁scene	-3518
▁vehicles	-3519
▁proposed	-3520
▁screen	-3521
▁Martin	-3522
▁Peter	-3523
▁street	-3524
▁date	-3525
▁bond	-3526
▁Day	-3527
▁beyond	-3528
▁commit	-3529
elled	-3530
▁wonder	-3531
▁yards	-3532
▁ep	-3533
▁suggested	-3534
▁blo	-3535
▁mix	-3536
▁goes	-3537
▁Oh	-3538
▁whom	-3539
▁Miss	-3540
noon	-3541
mar	-3542
care	-3543
▁website	-3544
▁farm	-3545
▁natural	-3546
▁inn	-3547
▁Franc	-3548
olf	-3549
▁Then	-3550
▁words	-3551
ugg	-3552
▁student	-3553
▁researchers	-3554
▁heavy	-3555
▁Turk	-3556
▁song	-3557
▁decade	-3558
▁speed	-3559
aves	-3560
▁birth	-3561
▁penal	-3562
▁Atlant	-3563
▁letter	-3564
▁damage	-3565
▁Royal	-3566
▁Western	-3567
▁bed	-3568
▁admitted	-3569
ager	-3570
▁36	-3571
▁Both	-3572
▁overall	-3573
▁carried	-3574
▁complain	-3575
useum	-3576
▁computer	-3577
▁rob	-3578
▁pur	-3579
iger	-3580
▁operation	-3581
roy	-3582
▁Under	-3583
▁rival	-3584
pper	-3585
▁primary	-3586
▁lay	-3587
▁Sy	-3588
▁cat	-3589
▁moving	-3590
▁var	-3591
▁comments	-3592
▁previously	-3593
▁recovery	-3594
▁request	-3595
iously	-3596
ashion	-3597
book	-3598
ma	-3599
500	-3600
0,000	-3601
▁33	-3602
▁hor	-3603
ecutive	-3604
▁Army	-3605
▁rare	-3606
▁Champ	-3607
▁Wales	-3608
enders	-3609
▁finished	-3610
ously	-3611
▁Su	-3612
▁beg	-3613
ources	-3614
▁storm	-3615
▁complete	-3616
▁planning	-3617
▁coast	-3618
▁Post	-3619
mas	-3620
▁college	-3621
▁300	-3622
uth	-3623
fect	-3624
▁southern	-3625
▁Tod	-3626
▁served	-3627
▁Justice	-3628
▁corn	-3629
ORK	-3630
▁knew	-3631
▁ten	-3632
ructure	-3633
▁Invest	-3634
OS	-3635
▁Mrs	-3636
▁arrived	-3637
ils	-3638
▁UN	-3639
oms	-3640
▁true	-3641
▁joined	-3642
▁ruling	-3643
▁source	-3644
▁vehicle	-3645
▁fresh	-3646
▁witness	-3647
▁exam	-3648
▁block	-3649
▁alone	-3650
▁speak	-3651
▁department	-3652
▁ful	-3653
▁inqu	-3654
▁unemploy	-3655
▁wel	-3656
▁afternoon	-3657
▁minor	-3658
▁citiz	-3659
▁rap	-3660
▁Manc	-3661
▁union	-3662
round	-3663
▁offering	-3664
ordin	-3665
ression	-3666
▁YORK	-3667
▁rule	-3668
▁fat	-3669
▁denied	-3670
▁greater	-3671
▁flight	-3672
▁champion	-3673
fort	-3674
icit	-3675
ties	-3676
asts	-3677
iling	-3678
▁projects	-3679
▁losing	-3680
iny	-3681
mail	-3682
▁mobile	-3683
▁loan	-3684
▁Pri	-3685
▁Inter	-3686
▁Mos	-3687
reland	-3688
EL	-3689
▁demonstr	-3690
▁withd	-3691
▁Fer	-3692
▁secretary	-3693
▁ensure	-3694
IA	-3695
eek	-3696
▁Cle	-3697
owers	-3698
▁electric	-3699
▁holding	-3700
enses	-3701
▁model	-3702
▁Braz	-3703
▁extrem	-3704
▁subject	-3705
▁looks	-3706
▁Ireland	-3707
▁challeng	-3708
▁offers	-3709
eff	-3710
▁explos	-3711
empor	-3712
arant	-3713
▁conflic	-3714
▁politics	-3715
▁2002	-3716
holders	-3717
owled	-3718
▁injuries	-3719
enty	-3720
▁twice	-3721
▁tough	-3722
▁behav	-3723
turn	-3724
▁believes	-3725
▁bought	-3726
▁drink	-3727
▁spokeswoman	-3728
▁Wil	-3729
▁amid	-3730
▁Gordon	-3731
sequ	-3732
incip	-3733
erem	-3734
▁tourn	-3735
▁practice	-3736
isation	-3737
het	-3738
▁goals	-3739
▁agree	-3740
▁winner	-3741
▁Bel	-3742
ibly	-3743
▁changed	-3744
▁remov	-3745
▁Brazil	-3746
▁broke	-3747
▁militants	-3748
▁successful	-3749
▁throw	-3750
igan	-3751
▁Sam	-3752
▁Virginia	-3753
▁arch	-3754
▁modern	-3755
▁Law	-3756
▁kick	-3757
▁choice	-3758
clus	-3759
▁meant	-3760
gen	-3761
▁throughout	-3762
▁borrow	-3763
▁Pet	-3764
▁earnings	-3765
▁remained	-3766
west	-3767
▁First	-3768
antage	-3769
DA	-3770
▁Del	-3771
▁controvers	-3772
▁mist	-3773
van	-3774
▁safe	-3775
▁Rock	-3776
▁mission	-3777
▁intelligence	-3778
▁selling	-3779
▁Jud	-3780
▁34	-3781
▁et	-3782
▁Mac	-3783
▁wild	-3784
rick	-3785
iscal	-3786
▁Olympic	-3787
▁determin	-3788
▁kid	-3789
▁systems	-3790
cing	-3791
▁cast	-3792
▁Ir	-3793
▁Mary	-3794
▁fifth	-3795
▁positive	-3796
▁decline	-3797
▁bi	-3798
arian	-3799
isco	-3800
aed	-3801
▁beginning	-3802
▁uns	-3803
▁prec	-3804
▁ordered	-3805
que	-3806
▁posted	-3807
▁lawyer	-3808
ctions	-3809
▁suppl	-3810
▁crash	-3811
▁Mot	-3812
▁grad	-3813
▁finally	-3814
▁construction	-3815
▁clin	-3816
▁sym	-3817
▁2000	-3818
▁Associated	-3819
▁occur	-3820
▁Chief	-3821
▁Lord	-3822
▁sem	-3823
▁doctors	-3824
▁Jim	-3825
EN	-3826
IC	-3827
ya	-3828
▁criminal	-3829
▁specific	-3830
iles	-3831
▁Nor	-3832
▁domin	-3833
ipment	-3834
uted	-3835
ointed	-3836
▁Frank	-3837
▁Mass	-3838
▁Bost	-3839
imul	-3840
▁governor	-3841
▁Japanese	-3842
onn	-3843
rang	-3844
▁Service	-3845
▁Manchester	-3846
▁struck	-3847
▁nations	-3848
astic	-3849
▁traditional	-3850
▁Mike	-3851
▁Asia	-3852
▁subst	-3853
▁pun	-3854
ha	-3855
▁finance	-3856
▁written	-3857
▁appears	-3858
▁adding	-3859
▁firms	-3860
▁shooting	-3861
▁flood	-3862
▁Conserv	-3863
▁illegal	-3864
orter	-3865
▁overse	-3866
▁Tel	-3867
▁confidence	-3868
▁brand	-3869
▁Another	-3870
agn	-3871
▁fem	-3872
anch	-3873
▁original	-3874
▁concerned	-3875
▁protest	-3876
▁signs	-3877
▁kids	-3878
ications	-3879
▁sometimes	-3880
▁attend	-3881
oz	-3882
▁slight	-3883
▁radio	-3884
▁responsible	-3885
▁liber	-3886
▁adop	-3887
▁users	-3888
ersey	-3889
inger	-3890
▁league	-3891
▁unit	-3892
▁Matt	-3893
▁document	-3894
▁serve	-3895
▁evening	-3896
▁fle	-3897
▁Christmas	-3898
▁Ah	-3899
▁weather	-3900
▁Boston	-3901
▁ang	-3902
▁ver	-3903
▁Canada	-3904
ux	-3905
▁partner	-3906
▁spoke	-3907
-5	-3908
aches	-3909
itter	-3910
▁strateg	-3911
▁delay	-3912
▁gets	-3913
▁character	-3914
lywood	-3915
▁policies	-3916
▁District	-3917
▁send	-3918
▁vice	-3919
▁scheme	-3920
▁books	-3921
▁calling	-3922
▁Hillary	-3923
ological	-3924
▁benefit	-3925
▁except	-3926
iller	-3927
▁driver	-3928
abin	-3929
ns	-3930
arters	-3931
▁Paris	-3932
▁During	-3933
▁faces	-3934
▁exact	-3935
▁corporate	-3936
▁Mean	-3937
icip	-3938
▁caught	-3939
▁refused	-3940
▁stimul	-3941
▁rat	-3942
▁Well	-3943
▁approved	-3944
▁Despite	-3945
▁leadership	-3946
▁stopped	-3947
▁powerful	-3948
▁qualif	-3949
▁Micro	-3950
▁sound	-3951
▁Thomas	-3952
▁Hall	-3953
▁sport	-3954
▁joint	-3955
▁cop	-3956
▁Big	-3957
▁church	-3958
mad	-3959
▁individual	-3960
add	-3961
▁altern	-3962
▁suicide	-3963
▁remark	-3964
▁owner	-3965
ification	-3966
▁experi	-3967
▁princip	-3968
▁tight	-3969
▁37	-3970
▁exchange	-3971
▁talking	-3972
▁banking	-3973
▁complex	-3974
▁born	-3975
▁Italy	-3976
ortion	-3977
ado	-3978
ented	-3979
asion	-3980
▁plane	-3981
aza	-3982
▁lose	-3983
▁activity	-3984
▁wide	-3985
▁limited	-3986
osure	-3987
▁door	-3988
▁certainly	-3989
▁Gar	-3990
sych	-3991
▁sports	-3992
▁Che	-3993
▁Over	-3994
▁Those	-3995
▁row	-3996
▁helping	-3997
▁camer	-3998
▁industrial	-3999
▁Ari	-4000
▁mach	-4001
▁aw	-4002
▁Georgia	-4003
▁facing	-4004
▁towards	-4005
AL	-4006
▁sav	-4007
▁Bu	-4008
riage	-4009
▁transport	-4010
▁bird	-4011
▁fiscal	-4012
▁AN	-4013
▁sources	-4014
▁ir	-4015
▁Cub	-4016
▁deaths	-4017
idge	-4018
▁package	-4019
ein	-4020
▁related	-4021
illing	-4022
▁neighbor	-4023
▁unp	-4024
knowled	-4025
SE	-4026
▁ship	-4027
▁Cont	-4028
win	-4029
iar	-4030
eal	-4031
▁estate	-4032
▁fine	-4033
▁collect	-4034
▁Meanwhile	-4035
▁largely	-4036
fri	-4037
▁acknowled	-4038
erc	-4039
▁contributed	-4040
▁Ma	-4041
▁lines	-4042
▁Our	-4043
▁places	-4044
▁secret	-4045
▁island	-4046
▁revealed	-4047
ewhere	-4048
olic	-4049
▁taxes	-4050
▁Author	-4051
▁records	-4052
▁daily	-4053
ining	-4054
imum	-4055
craft	-4056
▁size	-4057
▁software	-4058
▁inflation	-4059
▁resign	-4060
▁fraud	-4061
▁Tim	-4062
▁veter	-4063
▁band	-4064
▁argu	-4065
▁Den	-4066
point	-4067
▁san	-4068
▁critical	-4069
bre	-4070
oor	-4071
sea	-4072
▁protection	-4073
▁lic	-4074
ica	-4075
▁Yet	-4076
▁district	-4077
▁Commun	-4078
▁ones	-4079
▁nar	-4080
▁seconds	-4081
▁Open	-4082
▁programme	-4083
▁purs	-4084
▁showing	-4085
▁developing	-4086
▁accident	-4087
▁willing	-4088
▁38	-4089
▁ult	-4090
▁proposal	-4091
▁increasingly	-4092
rec	-4093
oper	-4094
▁Sal	-4095
▁sides	-4096
▁Stan	-4097
apt	-4098
▁votes	-4099
entially	-4100
▁Lee	-4101
▁Jew	-4102
een	-4103
▁alleg	-4104
▁supply	-4105
pay	-4106
▁afford	-4107
▁developed	-4108
▁equipment	-4109
apers	-4110
▁1,000	-4111
rip	-4112
▁northern	-4113
▁airport	-4114
▁holiday	-4115
▁missed	-4116
atively	-4117
▁pil	-4118
▁learn	-4119
▁Ec	-4120
▁tournament	-4121
▁traffic	-4122
▁Rec	-4123
▁Spain	-4124
ours	-4125
▁bag	-4126
▁happy	-4127
ears	-4128
asc	-4129
ville	-4130
▁Penn	-4131
▁Louis	-4132
soft	-4133
▁langu	-4134
▁Lo	-4135
▁remember	-4136
▁Road	-4137
ria	-4138
▁Chris	-4139
▁shown	-4140
▁pled	-4141
iest	-4142
pool	-4143
tr	-4144
gery	-4145
▁assault	-4146
▁arm	-4147
▁eventually	-4148
▁basis	-4149
▁Ac	-4150
▁failure	-4151
▁From	-4152
▁produced	-4153
▁highly	-4154
▁cities	-4155
▁happen	-4156
▁emissions	-4157
▁perfect	-4158
AA	-4159
▁Every	-4160
rom	-4161
▁movement	-4162
▁repeated	-4163
▁Span	-4164
agement	-4165
▁Carolina	-4166
▁Northern	-4167
▁province	-4168
ero	-4169
▁tack	-4170
▁usually	-4171
ground	-4172
▁standards	-4173
▁necessary	-4174
▁Joe	-4175
burgh	-4176
▁becoming	-4177
▁pretty	-4178
▁Ag	-4179
▁deg	-4180
▁adj	-4181
▁century	-4182
▁answer	-4183
▁ess	-4184
▁mostly	-4185
▁iP	-4186
▁Italian	-4187
▁falling	-4188
EC	-4189
▁advantage	-4190
ustr	-4191
▁scientists	-4192
▁giant	-4193
▁Tor	-4194
▁guarant	-4195
▁streets	-4196
born	-4197
▁assess	-4198
▁dark	-4199
▁barrel	-4200
▁risks	-4201
▁word	-4202
▁Institute	-4203
oses	-4204
▁prompt	-4205
▁Camp	-4206
adium	-4207
▁agencies	-4208
▁Hollywood	-4209
▁floor	-4210
▁2,	-4211
▁Jon	-4212
▁massive	-4213
▁sust	-4214
month	-4215
▁aware	-4216
▁upd	-4217
▁remaining	-4218
▁1990	-4219
▁Andrew	-4220
▁Microsoft	-4221
▁Bus	-4222
▁produce	-4223
nel	-4224
▁identified	-4225
▁Palestinian	-4226
agon	-4227
▁transfer	-4228
▁sort	-4229
like	-4230
▁unemployment	-4231
idel	-4232
▁convicted	-4233
IS	-4234
oked	-4235
mine	-4236
▁tests	-4237
▁bod	-4238
▁Australian	-4239
▁magaz	-4240
▁retire	-4241
▁achieve	-4242
inson	-4243
▁ign	-4244
IT	-4245
▁contest	-4246
▁accom	-4247
▁Prem	-4248
▁crack	-4249
▁snow	-4250
▁Bagh	-4251
aeda	-4252
▁bon	-4253
uals	-4254
▁har	-4255
dad	-4256
prof	-4257
▁Reg	-4258
▁names	-4259
▁curren	-4260
▁discovered	-4261
▁Inst	-4262
▁Tra	-4263
30	-4264
▁audience	-4265
▁spir	-4266
▁rain	-4267
▁coverage	-4268
▁Chel	-4269
▁Camer	-4270
▁fired	-4271
▁Jos	-4272
andon	-4273
▁paying	-4274
engers	-4275
▁completed	-4276
▁Hum	-4277
▁initi	-4278
▁doubt	-4279
▁euro	-4280
▁enfor	-4281
▁Islamic	-4282
▁various	-4283
▁option	-4284
ictions	-4285
▁environmental	-4286
▁Mont	-4287
▁committed	-4288
▁freed	-4289
▁Financ	-4290
▁organization	-4291
▁opin	-4292
anks	-4293
racy	-4294
▁pair	-4295
▁negotiations	-4296
▁Bern	-4297
▁lawmakers	-4298
▁Their	-4299
▁separate	-4300
▁Why	-4301
iment	-4302
inn	-4303
▁providing	-4304
lor	-4305
▁earth	-4306
▁prepared	-4307
▁stores	-4308
▁wealth	-4309
▁smaller	-4310
▁putting	-4311
TV	-4312
▁activities	-4313
▁forecast	-4314
▁About	-4315
▁rescue	-4316
▁baby	-4317
▁worse	-4318
▁urged	-4319
going	-4320
▁Central	-4321
▁resources	-4322
▁marg	-4323
▁tren	-4324
▁provides	-4325
da	-4326
ruption	-4327
▁dismiss	-4328
▁nearby	-4329
▁Great	-4330
▁Today	-4331
▁Ol	-4332
▁couldn	-4333
▁oppon	-4334
uct	-4335
▁announcement	-4336
▁suit	-4337
▁content	-4338
rawn	-4339
▁motor	-4340
▁ruled	-4341
▁dram	-4342
▁appl	-4343
▁rank	-4344
ighters	-4345
▁sun	-4346
▁managed	-4347
▁Hen	-4348
ables	-4349
▁carbon	-4350
▁44	-4351
▁42	-4352
▁pulled	-4353
hens	-4354
▁Three	-4355
▁warning	-4356
▁Colle	-4357
▁buying	-4358
▁older	-4359
▁Baghdad	-4360
▁Its	-4361
friend	-4362
US	-4363
▁Wal	-4364
▁weight	-4365
▁Foreign	-4366
-7	-4367
▁Scottish	-4368
▁documents	-4369
▁tim	-4370
▁spl	-4371
omes	-4372
ronic	-4373
▁Financial	-4374
▁Bob	-4375
▁fashion	-4376
▁panel	-4377
▁stake	-4378
▁balance	-4379
▁fears	-4380
▁culture	-4381
▁surf	-4382
▁noted	-4383
▁sought	-4384
▁Iranian	-4385
▁Sant	-4386
▁pit	-4387
▁governments	-4388
▁directly	-4389
▁organiz	-4390
▁lawyers	-4391
▁professional	-4392
▁limit	-4393
▁Super	-4394
▁grant	-4395
▁material	-4396
ropri	-4397
▁society	-4398
▁summit	-4399
▁Muslim	-4400
yard	-4401
▁equity	-4402
▁allowing	-4403
▁pet	-4404
▁Ver	-4405
iced	-4406
▁sexual	-4407
EO	-4408
▁continues	-4409
▁Good	-4410
▁Nov	-4411
bit	-4412
▁politicians	-4413
▁conservative	-4414
▁display	-4415
▁fellow	-4416
▁regional	-4417
▁und	-4418
▁Cal	-4419
annel	-4420
arden	-4421
▁Nations	-4422
▁Cor	-4423
▁Que	-4424
▁Medic	-4425
estival	-4426
ili	-4427
▁aircraft	-4428
▁profits	-4429
▁brain	-4430
iven	-4431
rog	-4432
ateg	-4433
▁subsid	-4434
▁48	-4435
▁Ford	-4436
▁10-	-4437
▁Liber	-4438
works	-4439
▁abuse	-4440
▁scr	-4441
▁fully	-4442
▁surgery	-4443
BA	-4444
▁Step	-4445
▁waiting	-4446
agues	-4447
board	-4448
▁gain	-4449
▁dangerous	-4450
▁affected	-4451
▁Ariz	-4452
▁carrying	-4453
▁enter	-4454
▁defeat	-4455
▁39	-4456
ulated	-4457
▁reserv	-4458
▁Mag	-4459
▁Abd	-4460
▁75	-4461
▁responsibility	-4462
lig	-4463
▁voted	-4464
▁citizens	-4465
▁payments	-4466
▁discl	-4467
▁Il	-4468
▁Supreme	-4469
▁deficit	-4470
▁Energy	-4471
iders	-4472
▁psych	-4473
▁Sar	-4474
▁ut	-4475
▁400	-4476
▁spring	-4477
▁Agency	-4478
owl	-4479
▁Trans	-4480
▁effective	-4481
▁religious	-4482
▁executives	-4483
▁status	-4484
outs	-4485
▁marriage	-4486
gn	-4487
▁Kn	-4488
ancing	-4489
▁mention	-4490
▁normal	-4491
▁troub	-4492
▁seat	-4493
ho	-4494
yl	-4495
well	-4496
▁Toy	-4497
▁Kenned	-4498
▁expert	-4499
▁cas	-4500
▁gall	-4501
▁eye	-4502
▁victim	-4503
▁clearly	-4504
▁rally	-4505
▁register	-4506
▁hy	-4507
ribution	-4508
ici	-4509
▁obv	-4510
▁existing	-4511
▁41	-4512
▁Lat	-4513
owed	-4514
▁Church	-4515
▁reasons	-4516
▁passengers	-4517
▁God	-4518
▁treated	-4519
▁Rom	-4520
▁Ohio	-4521
▁Rad	-4522
▁standard	-4523
▁Os	-4524
▁Steve	-4525
▁Hospital	-4526
▁university	-4527
▁suspected	-4528
▁log	-4529
bum	-4530
▁Apple	-4531
uan	-4532
▁der	-4533
▁Gre	-4534
cohol	-4535
ula	-4536
foot	-4537
▁accounts	-4538
▁ministers	-4539
▁authority	-4540
ikely	-4541
▁items	-4542
▁minute	-4543
▁Kennedy	-4544
fl	-4545
▁sleep	-4546
▁wouldn	-4547
▁table	-4548
aling	-4549
▁inquir	-4550
▁Att	-4551
▁favour	-4552
▁pounds	-4553
▁II	-4554
▁reality	-4555
ena	-4556
▁reduced	-4557
▁ice	-4558
▁Palin	-4559
▁trouble	-4560
▁labor	-4561
▁lived	-4562
ios	-4563
▁Dub	-4564
▁aimed	-4565
yal	-4566
▁medic	-4567
etroit	-4568
▁rejected	-4569
▁stret	-4570
▁194	-4571
ano	-4572
▁doctor	-4573
▁imag	-4574
▁promot	-4575
▁science	-4576
▁virt	-4577
▁Liver	-4578
▁picture	-4579
resp	-4580
▁worldwide	-4581
long	-4582
▁Jeff	-4583
▁MPs	-4584
▁east	-4585
▁Art	-4586
emporary	-4587
▁Detroit	-4588
▁exerc	-4589
▁rich	-4590
▁Sing	-4591
▁sea	-4592
▁blue	-4593
▁establish	-4594
ador	-4595
▁conflict	-4596
acity	-4597
▁Middle	-4598
▁hits	-4599
aked	-4600
▁unlikely	-4601
▁girls	-4602
▁command	-4603
usted	-4604
OP	-4605
▁Sur	-4606
▁cerem	-4607
▁defend	-4608
hered	-4609
itors	-4610
▁vari	-4611
▁Cameron	-4612
bert	-4613
▁Still	-4614
▁asking	-4615
▁earned	-4616
▁knows	-4617
rig	-4618
▁GMT	-4619
▁wall	-4620
aith	-4621
▁depart	-4622
▁advertising	-4623
-8	-4624
▁faced	-4625
▁prefer	-4626
▁rac	-4627
▁Instead	-4628
road	-4629
▁decisions	-4630
▁apparently	-4631
▁thinking	-4632
abil	-4633
▁affect	-4634
vention	-4635
▁Canad	-4636
▁Carl	-4637
▁lob	-4638
▁55	-4639
▁decide	-4640
▁expressed	-4641
kins	-4642
▁wearing	-4643
▁renew	-4644
▁meth	-4645
▁expectations	-4646
▁65	-4647
▁bull	-4648
▁emot	-4649
▁voice	-4650
▁Asian	-4651
▁NH	-4652
▁threatened	-4653
▁struggling	-4654
▁College	-4655
▁album	-4656
▁female	-4657
roll	-4658
egr	-4659
apse	-4660
▁owned	-4661
▁protests	-4662
ibr	-4663
▁Cath	-4664
▁difference	-4665
▁gra	-4666
▁simple	-4667
▁destroy	-4668
▁effects	-4669
▁Services	-4670
▁Chelsea	-4671
▁presence	-4672
▁43	-4673
▁linked	-4674
▁comfort	-4675
ections	-4676
▁perm	-4677
▁bodies	-4678
▁flat	-4679
▁justice	-4680
▁shots	-4681
ato	-4682
▁vacc	-4683
AC	-4684
▁larger	-4685
▁expensive	-4686
▁widely	-4687
▁advoc	-4688
▁suspect	-4689
▁deals	-4690
▁Liverpool	-4691
▁uncertain	-4692
evin	-4693
▁elected	-4694
▁rough	-4695
astern	-4696
▁secure	-4697
ucks	-4698
▁polls	-4699
▁chem	-4700
ni	-4701
▁Home	-4702
▁Hel	-4703
▁stimulus	-4704
▁involve	-4705
▁criticism	-4706
isher	-4707
▁purp	-4708
▁AI	-4709
itals	-4710
▁armed	-4711
ysis	-4712
▁deleg	-4713
▁penalty	-4714
▁Pakistani	-4715
▁allegations	-4716
emen	-4717
▁married	-4718
▁finding	-4719
ois	-4720
▁upon	-4721
▁seats	-4722
▁compens	-4723
▁slightly	-4724
▁page	-4725
▁sentence	-4726
▁ton	-4727
exp	-4728
▁coalition	-4729
▁Korean	-4730
▁expenses	-4731
▁hurt	-4732
▁broken	-4733
▁Ron	-4734
▁fees	-4735
▁Pac	-4736
▁tens	-4737
angers	-4738
▁gives	-4739
▁Capital	-4740
▁confident	-4741
▁heav	-4742
part	-4743
▁rail	-4744
▁convers	-4745
standing	-4746
gypt	-4747
uction	-4748
▁actions	-4749
▁institutions	-4750
▁Jersey	-4751
▁bankrupt	-4752
▁Admin	-4753
itude	-4754
▁Im	-4755
war	-4756
pson	-4757
enger	-4758
▁integr	-4759
za	-4760
▁placed	-4761
▁jury	-4762
▁steps	-4763
▁frequ	-4764
▁influence	-4765
▁Ann	-4766
▁note	-4767
emper	-4768
▁championship	-4769
▁image	-4770
▁arms	-4771
ps	-4772
▁neighborhood	-4773
▁deploy	-4774
▁keeping	-4775
▁din	-4776
▁CBS	-4777
▁Child	-4778
▁resol	-4779
▁Also	-4780
▁exactly	-4781
▁path	-4782
▁origin	-4783
▁Pre	-4784
▁territ	-4785
ivals	-4786
quarter	-4787
▁Gaza	-4788
▁Spe	-4789
▁Premier	-4790
▁marketing	-4791
aped	-4792
▁plat	-4793
▁Vill	-4794
ols	-4795
▁Egypt	-4796
▁shel	-4797
▁exhib	-4798
ka	-4799
ickets	-4800
▁Ev	-4801
▁haven	-4802
abinet	-4803
▁hero	-4804
▁focused	-4805
▁houses	-4806
▁Exchange	-4807
▁sup	-4808
▁proceed	-4809
▁Board	-4810
▁buildings	-4811
▁Ryan	-4812
▁meaning	-4813
emocracy	-4814
▁grew	-4815
ulf	-4816
SA	-4817
ducing	-4818
▁proper	-4819
▁session	-4820
▁1.5	-4821
omen	-4822
▁advice	-4823
▁magazine	-4824
▁village	-4825
asters	-4826
▁options	-4827
▁Card	-4828
▁promised	-4829
▁Irish	-4830
ican	-4831
▁stocks	-4832
▁suspic	-4833
▁shop	-4834
▁piece	-4835
▁Christian	-4836
▁setting	-4837
▁Four	-4838
mes	-4839
ucky	-4840
licop	-4841
▁Direct	-4842
▁Tony	-4843
eless	-4844
▁features	-4845
▁Fox	-4846
▁wounded	-4847
▁county	-4848
▁helicop	-4849
▁initial	-4850
▁finish	-4851
udd	-4852
▁conclud	-4853
▁Among	-4854
▁stars	-4855
▁swe	-4856
▁terrorist	-4857
▁Any	-4858
▁Ministry	-4859
▁generation	-4860
▁text	-4861
▁division	-4862
utch	-4863
adel	-4864
▁Sil	-4865
▁catch	-4866
▁fort	-4867
▁Olympics	-4868
▁onto	-4869
▁hoping	-4870
▁considering	-4871
▁prosecutors	-4872
▁write	-4873
▁Ter	-4874
▁recru	-4875
▁continuing	-4876
▁taxpay	-4877
▁west	-4878
▁facility	-4879
▁patient	-4880
rect	-4881
▁language	-4882
▁Face	-4883
▁Cur	-4884
▁Grand	-4885
▁cutting	-4886
iot	-4887
▁allegedly	-4888
▁professor	-4889
onym	-4890
awn	-4891
▁withdraw	-4892
▁Spanish	-4893
▁Let	-4894
ini	-4895
hand	-4896
▁Hait	-4897
▁plants	-4898
▁savings	-4899
cri	-4900
▁internet	-4901
▁views	-4902
▁49	-4903
▁serving	-4904
▁eyes	-4905
hi	-4906
▁47	-4907
▁aren	-4908
▁multip	-4909
ansas	-4910
▁seeing	-4911
▁Fre	-4912
▁reading	-4913
▁Arizona	-4914
▁46	-4915
▁plays	-4916
iat	-4917
bury	-4918
▁introduced	-4919
▁watching	-4920
▁colleagues	-4921
▁Comp	-4922
▁attacked	-4923
raf	-4924
▁suggests	-4925
looking	-4926
▁2011	-4927
▁approval	-4928
▁congress	-4929
▁famous	-4930
▁youth	-4931
anda	-4932
▁Met	-4933
▁3-	-4934
▁Ram	-4935
igg	-4936
▁Kim	-4937
eban	-4938
▁NAT	-4939
▁unable	-4940
han	-4941
▁Francisco	-4942
▁alcohol	-4943
umn	-4944
▁Michigan	-4945
▁studies	-4946
order	-4947
▁fly	-4948
▁declared	-4949
ront	-4950
state	-4951
itation	-4952
tained	-4953
▁flag	-4954
▁emerged	-4955
eds	-4956
▁digital	-4957
▁clients	-4958
anging	-4959
▁winter	-4960
venue	-4961
▁Charles	-4962
met	-4963
ko	-4964
▁apart	-4965
▁novel	-4966
▁tom	-4967
▁aggress	-4968
aks	-4969
▁fallen	-4970
cow	-4971
otten	-4972
.-	-4973
hy	-4974
▁195	-4975
▁Win	-4976
▁Moham	-4977
▁improved	-4978
▁restaurant	-4979
▁Steven	-4980
▁temper	-4981
▁Lew	-4982
▁Av	-4983
wise	-4984
hlet	-4985
▁feeling	-4986
urning	-4987
▁Econom	-4988
irt	-4989
▁vent	-4990
▁teleph	-4991
▁hair	-4992
▁TH	-4993
▁Star	-4994
▁defin	-4995
known	-4996
▁pull	-4997
▁shareholders	-4998
▁Island	-4999
▁scen	-5000
▁facilities	-5001
osen	-5002
▁Ten	-5003
▁critics	-5004
▁od	-5005
▁corner	-5006
▁collapse	-5007
unte	-5008
▁Mem	-5009
▁pitch	-5010
abor	-5011
▁Senator	-5012
▁Dis	-5013
▁Tour	-5014
▁estimates	-5015
▁section	-5016
gl	-5017
▁relatively	-5018
▁Bec	-5019
▁raising	-5020
▁Guard	-5021
▁broadcast	-5022
▁sixth	-5023
▁solution	-5024
▁supposed	-5025
▁1980	-5026
▁immediate	-5027
▁severe	-5028
▁deputy	-5029
▁Sud	-5030
▁visitors	-5031
▁Tay	-5032
ias	-5033
▁suffering	-5034
▁bottom	-5035
gu	-5036
put	-5037
▁easily	-5038
▁crimes	-5039
ength	-5040
▁Stephen	-5041
▁occup	-5042
▁draft	-5043
▁proposals	-5044
▁Business	-5045
▁rein	-5046
▁involving	-5047
▁interests	-5048
▁bringing	-5049
▁Mah	-5050
▁individuals	-5051
pir	-5052
elson	-5053
▁nature	-5054
aska	-5055
▁underst	-5056
▁expects	-5057
rich	-5058
▁standing	-5059
▁appearance	-5060
related	-5061
▁determined	-5062
antly	-5063
▁Kent	-5064
▁dozen	-5065
▁bench	-5066
▁Ash	-5067
▁purchase	-5068
▁wood	-5069
▁surprise	-5070
▁academ	-5071
▁completely	-5072
▁type	-5073
▁AT	-5074
▁cold	-5075
▁athlet	-5076
▁communities	-5077
eman	-5078
▁backed	-5079
▁strength	-5080
▁worry	-5081
dden	-5082
▁fewer	-5083
▁pregn	-5084
fol	-5085
gar	-5086
▁voting	-5087
esters	-5088
iable	-5089
▁Gov	-5090
▁diss	-5091
▁Sa	-5092
▁collection	-5093
▁photograph	-5094
▁River	-5095
▁proced	-5096
▁burn	-5097
atever	-5098
▁climb	-5099
▁speaking	-5100
▁alternative	-5101
▁52	-5102
rier	-5103
NA	-5104
▁Journal	-5105
▁opinion	-5106
▁turning	-5107
▁stories	-5108
▁singer	-5109
▁Woods	-5110
▁BST	-5111
▁Murray	-5112
▁films	-5113
▁flights	-5114
aint	-5115
▁vast	-5116
▁suspended	-5117
erate	-5118
▁surge	-5119
▁Far	-5120
burg	-5121
iful	-5122
▁Toyota	-5123
▁picked	-5124
▁bigger	-5125
▁tend	-5126
▁htt	-5127
▁percentage	-5128
▁cruc	-5129
▁prove	-5130
▁Daniel	-5131
▁spect	-5132
▁Administration	-5133
ivery	-5134
under	-5135
▁Conn	-5136
▁meetings	-5137
ani	-5138
▁spons	-5139
▁via	-5140
▁pushed	-5141
▁dream	-5142
▁closing	-5143
▁capacity	-5144
▁Sol	-5145
▁blow	-5146
▁Lu	-5147
▁Cit	-5148
▁150	-5149
▁tie	-5150
▁Corpor	-5151
▁Canadian	-5152
▁combined	-5153
ipping	-5154
▁Swed	-5155
▁dress	-5156
▁intended	-5157
▁http	-5158
▁Organ	-5159
▁rapid	-5160
▁relief	-5161
▁insisted	-5162
▁Stock	-5163
▁captain	-5164
▁euros	-5165
▁sudden	-5166
istics	-5167
▁physical	-5168
▁stress	-5169
▁entered	-5170
embly	-5171
▁Defense	-5172
quarters	-5173
▁pace	-5174
▁Moscow	-5175
▁defence	-5176
▁conducted	-5177
mond	-5178
▁creating	-5179
▁hoped	-5180
▁liqu	-5181
▁spark	-5182
uate	-5183
▁healthcare	-5184
▁offices	-5185
dom	-5186
▁substant	-5187
▁possibility	-5188
▁Haw	-5189
▁gather	-5190
sewhere	-5191
org	-5192
aming	-5193
▁boss	-5194
▁Facebook	-5195
▁starts	-5196
▁Fort	-5197
▁writing	-5198
▁recover	-5199
andal	-5200
▁Reserve	-5201
▁actor	-5202
usion	-5203
▁object	-5204
▁Vict	-5205
where	-5206
▁argued	-5207
▁react	-5208
▁Found	-5209
▁factors	-5210
▁gang	-5211
▁convention	-5212
▁style	-5213
aching	-5214
▁Like	-5215
▁abandon	-5216
edy	-5217
▁tied	-5218
▁learned	-5219
▁NATO	-5220
▁agent	-5221
▁harm	-5222
▁investigators	-5223
▁unless	-5224
▁headed	-5225
▁Only	-5226
▁arrang	-5227
ilton	-5228
▁Stud	-5229
▁recommend	-5230
▁Morgan	-5231
▁closer	-5232
▁squad	-5233
▁established	-5234
▁western	-5235
▁removed	-5236
▁civilians	-5237
▁currency	-5238
▁agents	-5239
ansion	-5240
ola	-5241
iami	-5242
▁Are	-5243
phia	-5244
▁presented	-5245
▁connection	-5246
ivity	-5247
eing	-5248
▁CEO	-5249
▁walked	-5250
ores	-5251
ingly	-5252
▁drivers	-5253
ounger	-5254
▁implement	-5255
wan	-5256
▁Public	-5257
ledge	-5258
▁seriously	-5259
▁Rog	-5260
owa	-5261
▁Mel	-5262
ennis	-5263
▁innings	-5264
adelphia	-5265
▁Columb	-5266
▁Nick	-5267
▁van	-5268
ua	-5269
▁pool	-5270
▁ties	-5271
▁Fund	-5272
▁animals	-5273
con	-5274
▁gay	-5275
▁Miami	-5276
▁Kevin	-5277
▁pension	-5278
▁stuff	-5279
▁Philadelphia	-5280
▁faith	-5281
▁goods	-5282
▁images	-5283
▁constitution	-5284
▁circum	-5285
▁challenges	-5286
ibet	-5287
rie	-5288
fficient	-5289
▁advance	-5290
▁familiar	-5291
▁Earlier	-5292
▁allows	-5293
▁commitment	-5294
▁consist	-5295
▁increases	-5296
▁generally	-5297
ocal	-5298
ipe	-5299
▁Stand	-5300
▁terrorism	-5301
▁compar	-5302
sex	-5303
▁plus	-5304
▁unus	-5305
▁recorded	-5306
▁teachers	-5307
▁Ali	-5308
▁Rel	-5309
ighter	-5310
▁ded	-5311
rist	-5312
coming	-5313
▁nor	-5314
▁batter	-5315
LA	-5316
▁airline	-5317
▁extended	-5318
▁resident	-5319
▁Because	-5320
▁bills	-5321
▁Prince	-5322
▁task	-5323
▁Saud	-5324
▁supported	-5325
rill	-5326
▁combat	-5327
▁supplies	-5328
▁Hamas	-5329
▁innov	-5330
▁maybe	-5331
▁touchdown	-5332
▁healthy	-5333
▁lending	-5334
▁51	-5335
▁Charl	-5336
din	-5337
▁optim	-5338
▁rivals	-5339
▁NAS	-5340
▁downturn	-5341
▁heavily	-5342
▁worried	-5343
-9	-5344
acked	-5345
oles	-5346
▁mayor	-5347
DS	-5348
▁determine	-5349
▁entertain	-5350
rep	-5351
▁sentenced	-5352
▁delivery	-5353
▁manufactur	-5354
▁batt	-5355
▁editor	-5356
▁prospect	-5357
▁debut	-5358
▁fit	-5359
▁stood	-5360
urd	-5361
▁ast	-5362
abb	-5363
▁ceremony	-5364
▁fal	-5365
▁museum	-5366
itzer	-5367
▁fan	-5368
▁occurred	-5369
▁Young	-5370
▁inquiry	-5371
▁Anal	-5372
CC	-5373
irates	-5374
▁platform	-5375
▁Games	-5376
▁interested	-5377
kin	-5378
▁covered	-5379
ader	-5380
▁aged	-5381
▁Parliament	-5382
▁heads	-5383
▁sending	-5384
▁testing	-5385
▁revenues	-5386
▁wa	-5387
▁Jul	-5388
chen	-5389
▁crude	-5390
▁corruption	-5391
▁feed	-5392
▁eat	-5393
▁absol	-5394
▁reflect	-5395
▁offensive	-5396
▁gar	-5397
▁Turkey	-5398
▁violent	-5399
▁possibly	-5400
▁waste	-5401
▁Old	-5402
ician	-5403
▁Medical	-5404
▁Long	-5405
▁ho	-5406
▁Nas	-5407
▁glass	-5408
pe	-5409
▁younger	-5410
▁shr	-5411
▁telling	-5412
▁custody	-5413
▁stick	-5414
▁pra	-5415
▁Brian	-5416
▁Coll	-5417
▁assum	-5418
▁Tibet	-5419
▁volunte	-5420
▁applications	-5421
▁Brad	-5422
▁approx	-5423
▁charity	-5424
tar	-5425
▁contracts	-5426
TA	-5427
▁Life	-5428
▁Yank	-5429
town	-5430
▁..	-5431
▁cool	-5432
▁Iowa	-5433
▁gains	-5434
▁telephone	-5435
▁boys	-5436
▁web	-5437
▁delivered	-5438
▁1999	-5439
▁opportunities	-5440
▁Taylor	-5441
▁lands	-5442
▁Hamp	-5443
▁Daily	-5444
▁playoff	-5445
▁retired	-5446
▁Hot	-5447
▁Broad	-5448
▁stations	-5449
▁truth	-5450
▁bankruptcy	-5451
urb	-5452
▁method	-5453
▁active	-5454
▁replace	-5455
hew	-5456
▁reporting	-5457
▁household	-5458
▁herself	-5459
▁Prot	-5460
cean	-5461
▁powers	-5462
ospitals	-5463
▁targets	-5464
▁complic	-5465
orrow	-5466
pects	-5467
▁bul	-5468
▁Hou	-5469
orial	-5470
called	-5471
▁controversial	-5472
azz	-5473
▁findings	-5474
▁Who	-5475
▁Roman	-5476
▁acquis	-5477
▁initially	-5478
mates	-5479
▁confirm	-5480
▁regime	-5481
▁blamed	-5482
place	-5483
▁Somal	-5484
▁Judge	-5485
▁Fred	-5486
▁Conference	-5487
▁sister	-5488
▁shortly	-5489
▁device	-5490
▁Bet	-5491
▁Dow	-5492
ologies	-5493
ridge	-5494
▁suspects	-5495
▁wire	-5496
▁dispute	-5497
▁judges	-5498
life	-5499
▁orders	-5500
oured	-5501
▁Sher	-5502
▁diagn	-5503
usal	-5504
▁adults	-5505
▁electricity	-5506
▁gained	-5507
▁yield	-5508
▁feature	-5509
▁Ars	-5510
▁Hong	-5511
amin	-5512
▁Davis	-5513
▁settlement	-5514
▁negative	-5515
▁quiet	-5516
▁returning	-5517
maker	-5518
▁basic	-5519
OU	-5520
▁cards	-5521
enez	-5522
▁units	-5523
▁Club	-5524
▁frustr	-5525
▁securities	-5526
▁positions	-5527
▁54	-5528
▁Brook	-5529
▁Lewis	-5530
▁bat	-5531
▁knowledge	-5532
▁none	-5533
▁McG	-5534
▁Cast	-5535
▁anticip	-5536
▁partnership	-5537
▁AF	-5538
lvan	-5539
hour	-5540
tle	-5541
▁closely	-5542
▁GOP	-5543
▁lobby	-5544
▁ideas	-5545
OL	-5546
heast	-5547
▁vul	-5548
▁shopping	-5549
▁analysis	-5550
▁reput	-5551
▁Jer	-5552
▁narrow	-5553
▁cru	-5554
▁suc	-5555
▁auction	-5556
▁NF	-5557
▁anonym	-5558
▁Officials	-5559
rative	-5560
rast	-5561
▁Earth	-5562
▁maintain	-5563
▁Dun	-5564
▁Here	-5565
▁decre	-5566
▁plot	-5567
▁NY	-5568
▁Food	-5569
ube	-5570
▁Southern	-5571
▁Before	-5572
▁bask	-5573
▁Mount	-5574
oma	-5575
▁failing	-5576
▁customer	-5577
▁dozens	-5578
▁matches	-5579
ropriate	-5580
▁Up	-5581
▁Kong	-5582
▁contain	-5583
lick	-5584
▁Colomb	-5585
▁Clark	-5586
▁chances	-5587
▁Atlanta	-5588
▁categ	-5589
▁hal	-5590
▁Blair	-5591
▁Int	-5592
▁sanctions	-5593
▁Gates	-5594
sylvan	-5595
▁Work	-5596
▁watched	-5597
any	-5598
bl	-5599
▁protesters	-5600
mo	-5601
eline	-5602
▁emph	-5603
▁opposed	-5604
ighth	-5605
olit	-5606
empts	-5607
▁Illin	-5608
▁Dou	-5609
▁Foundation	-5610
▁Teh	-5611
▁scale	-5612
▁max	-5613
▁Saf	-5614
▁choose	-5615
▁Pennsylvan	-5616
▁advanced	-5617
▁Die	-5618
▁53	-5619
▁appoint	-5620
▁accepted	-5621
▁compensation	-5622
▁causing	-5623
ien	-5624
▁surround	-5625
▁ABC	-5626
▁investigating	-5627
▁crucial	-5628
▁sitting	-5629
▁senator	-5630
▁Bol	-5631
▁Coast	-5632
rys	-5633
▁buyers	-5634
▁hasn	-5635
AG	-5636
▁Rev	-5637
▁collaps	-5638
▁commander	-5639
▁Catholic	-5640
stitution	-5641
▁extremely	-5642
▁shift	-5643
writ	-5644
▁devices	-5645
▁fish	-5646
▁cart	-5647
▁reportedly	-5648
▁approximately	-5649
▁zone	-5650
hatt	-5651
▁Argent	-5652
atically	-5653
▁Sudan	-5654
▁length	-5655
▁Fire	-5656
▁ending	-5657
▁apartment	-5658
▁multiple	-5659
▁liter	-5660
yr	-5661
inals	-5662
▁proved	-5663
▁perman	-5664
apping	-5665
▁blog	-5666
▁driven	-5667
gment	-5668
hone	-5669
▁Illinois	-5670
▁roads	-5671
rain	-5672
▁Ahmad	-5673
▁edge	-5674
abe	-5675
▁oblig	-5676
▁associated	-5677
▁Dev	-5678
▁Techn	-5679
▁rebels	-5680
▁Bas	-5681
stein	-5682
▁Develop	-5683
▁tort	-5684
allas	-5685
look	-5686
▁publicly	-5687
▁replaced	-5688
ograp	-5689
▁ethn	-5690
▁ble	-5691
▁Pennsylvania	-5692
▁shared	-5693
▁guy	-5694
LE	-5695
▁depend	-5696
rif	-5697
▁lawsuit	-5698
▁succeed	-5699
sey	-5700
▁Saudi	-5701
▁visited	-5702
RA	-5703
▁Put	-5704
▁Boy	-5705
gers	-5706
game	-5707
▁enforcement	-5708
▁Shi	-5709
▁missile	-5710
amil	-5711
▁banned	-5712
▁hun	-5713
era	-5714
▁announce	-5715
▁investments	-5716
▁consecutive	-5717
▁ticket	-5718
▁master	-5719
▁Du	-5720
▁degree	-5721
▁Tehran	-5722
▁male	-5723
▁eastern	-5724
▁heat	-5725
▁depos	-5726
▁attended	-5727
▁cells	-5728
▁Sever	-5729
iants	-5730
osite	-5731
▁solutions	-5732
▁Houston	-5733
ius	-5734
▁Color	-5735
▁acting	-5736
▁Six	-5737
▁potentially	-5738
etic	-5739
▁truck	-5740
▁breat	-5741
▁represents	-5742
respond	-5743
▁warming	-5744
,500	-5745
▁manufacturing	-5746
market	-5747
▁assistant	-5748
rate	-5749
▁plenty	-5750
minute	-5751
ogue	-5752
arr	-5753
load	-5754
▁writer	-5755
▁teacher	-5756
▁Once	-5757
oe	-5758
▁Pit	-5759
▁solid	-5760
▁warm	-5761
▁die	-5762
loom	-5763
▁shock	-5764
▁elimin	-5765
expected	-5766
▁knee	-5767
▁Gra	-5768
▁organizations	-5769
etary	-5770
▁grown	-5771
▁virus	-5772
▁flow	-5773
▁Jewish	-5774
▁species	-5775
pet	-5776
▁Trust	-5777
▁cyc	-5778
▁Kel	-5779
owned	-5780
▁animal	-5781
▁Exp	-5782
▁moves	-5783
▁pictures	-5784
▁skills	-5785
▁Swiss	-5786
▁Spec	-5787
othing	-5788
▁Jac	-5789
▁drove	-5790
▁bare	-5791
icated	-5792
▁civilian	-5793
▁route	-5794
▁coff	-5795
▁begun	-5796
▁blame	-5797
▁vulner	-5798
▁entry	-5799
agers	-5800
▁trav	-5801
▁territory	-5802
▁univers	-5803
airman	-5804
▁blast	-5805
▁FBI	-5806
▁models	-5807
▁retirement	-5808
▁Play	-5809
▁Down	-5810
▁receiving	-5811
▁Eric	-5812
▁tradition	-5813
▁walking	-5814
▁Securities	-5815
▁chain	-5816
▁thr	-5817
▁unve	-5818
▁circumst	-5819
fire	-5820
nam	-5821
▁sick	-5822
▁Lib	-5823
▁Social	-5824
▁syn	-5825
▁2012	-5826
hattan	-5827
▁resist	-5828
▁uses	-5829
▁Out	-5830
▁Osc	-5831
▁exercise	-5832
▁historic	-5833
ounced	-5834
▁100,000	-5835
▁thanks	-5836
▁spirit	-5837
▁Phill	-5838
ette	-5839
▁attempts	-5840
▁tow	-5841
rant	-5842
▁smart	-5843
rastructure	-5844
▁highlight	-5845
▁Force	-5846
▁Lyn	-5847
▁easier	-5848
▁consequ	-5849
▁Beck	-5850
irk	-5851
▁lux	-5852
▁producer	-5853
▁immigration	-5854
▁Pros	-5855
▁Manhattan	-5856
▁Ke	-5857
verse	-5858
▁significantly	-5859
▁freedom	-5860
▁Der	-5861
▁Former	-5862
▁trend	-5863
▁Real	-5864
▁Sark	-5865
vis	-5866
▁allies	-5867
▁sevent	-5868
MA	-5869
▁Kat	-5870
ulate	-5871
▁Human	-5872
season	-5873
▁persu	-5874
▁hospitals	-5875
ancell	-5876
▁rub	-5877
▁10,000	-5878
erous	-5879
▁acknowledged	-5880
▁disaster	-5881
▁experienced	-5882
▁maker	-5883
▁repeatedly	-5884
ae	-5885
▁explain	-5886
ication	-5887
▁Test	-5888
▁Leban	-5889
ullah	-5890
▁Pacific	-5891
▁headquarters	-5892
▁predict	-5893
▁direction	-5894
▁democracy	-5895
▁Lt	-5896
▁Valley	-5897
▁pointed	-5898
▁rent	-5899
▁Sus	-5900
athan	-5901
▁movies	-5902
▁journalists	-5903
▁notes	-5904
▁changing	-5905
▁Jr	-5906
▁lowest	-5907
▁desper	-5908
▁belong	-5909
▁questioned	-5910
idency	-5911
orough	-5912
rison	-5913
▁satis	-5914
▁overseas	-5915
▁gat	-5916
▁liberal	-5917
▁targeted	-5918
operation	-5919
iana	-5920
ozy	-5921
▁indicated	-5922
etts	-5923
▁square	-5924
▁skin	-5925
▁wins	-5926
autiful	-5927
▁managers	-5928
othes	-5929
11	-5930
quare	-5931
Americ	-5932
▁Henry	-5933
▁liquid	-5934
▁mand	-5935
▁Miller	-5936
▁Gulf	-5937
▁nomination	-5938
uster	-5939
▁auto	-5940
▁Show	-5941
▁rid	-5942
▁pleaded	-5943
▁Victor	-5944
▁emerging	-5945
▁seized	-5946
▁epis	-5947
▁Colorado	-5948
▁Di	-5949
orders	-5950
▁Society	-5951
▁Championship	-5952
▁Dubai	-5953
enda	-5954
▁excess	-5955
▁fee	-5956
▁visiting	-5957
▁roll	-5958
▁ethnic	-5959
▁mortgages	-5960
▁reputation	-5961
▁NBC	-5962
▁rebounds	-5963
class	-5964
▁drawn	-5965
▁marked	-5966
▁Oper	-5967
▁courts	-5968
▁holds	-5969
▁internal	-5970
▁stands	-5971
▁exclus	-5972
power	-5973
▁artist	-5974
▁Management	-5975
▁Bell	-5976
formation	-5977
▁Abb	-5978
dog	-5979
▁elsewhere	-5980
▁Es	-5981
cks	-5982
inent	-5983
▁Ins	-5984
▁Attorney	-5985
▁otherwise	-5986
▁scoring	-5987
▁settle	-5988
▁800	-5989
▁57	-5990
▁correct	-5991
▁golf	-5992
ossible	-5993
▁56	-5994
▁symb	-5995
argo	-5996
▁wed	-5997
▁Nob	-5998
▁concent	-5999
uated	-6000
▁install	-6001
ashes	-6002
ahoo	-6003
more	-6004
▁split	-6005
▁58	-6006
▁struggle	-6007
▁detect	-6008
▁Howard	-6009
▁Several	-6010
enh	-6011
▁Andy	-6012
essions	-6013
▁earthqu	-6014
▁scandal	-6015
▁Edwards	-6016
▁Bang	-6017
oviet	-6018
aval	-6019
mouth	-6020
▁contrast	-6021
hab	-6022
▁therap	-6023
pc	-6024
▁welcome	-6025
▁Pan	-6026
▁1.2	-6027
▁illness	-6028
▁supporting	-6029
▁myself	-6030
▁cheap	-6031
▁networks	-6032
rysler	-6033
eded	-6034
▁application	-6035
▁mainly	-6036
▁please	-6037
▁satell	-6038
▁Harry	-6039
▁mic	-6040
▁messages	-6041
ca	-6042
▁Year	-6043
▁wine	-6044
equ	-6045
illy	-6046
iversary	-6047
amm	-6048
▁seventh	-6049
ED	-6050
achus	-6051
▁Niger	-6052
▁Ell	-6053
▁opponents	-6054
▁phones	-6055
icing	-6056
▁Sarah	-6057
▁farmers	-6058
▁eth	-6059
▁1970	-6060
▁tast	-6061
▁appointed	-6062
▁mental	-6063
▁600	-6064
▁competitive	-6065
▁handed	-6066
▁hall	-6067
▁toll	-6068
ellow	-6069
▁greatest	-6070
assy	-6071
ulture	-6072
▁core	-6073
▁happens	-6074
▁print	-6075
▁predicted	-6076
▁Though	-6077
hem	-6078
▁Us	-6079
▁ven	-6080
▁threw	-6081
▁express	-6082
▁unique	-6083
▁tact	-6084
uild	-6085
▁argument	-6086
urance	-6087
▁location	-6088
▁Det	-6089
▁tickets	-6090
▁passing	-6091
▁emphas	-6092
▁notice	-6093
oen	-6094
▁Ok	-6095
▁alongside	-6096
ealand	-6097
inth	-6098
▁complaints	-6099
hus	-6100
auc	-6101
ensus	-6102
▁Next	-6103
achusetts	-6104
rehens	-6105
▁viewers	-6106
▁chemical	-6107
va	-6108
▁archit	-6109
▁parent	-6110
▁Chrysler	-6111
▁ongoing	-6112
▁dial	-6113
▁infrastructure	-6114
acle	-6115
▁Er	-6116
▁outs	-6117
▁1997	-6118
▁rural	-6119
yo	-6120
▁quoted	-6121
▁Analyst	-6122
▁stretch	-6123
▁Serb	-6124
▁camera	-6125
▁veteran	-6126
▁tiny	-6127
IV	-6128
▁Sarkozy	-6129
▁ministry	-6130
ifying	-6131
▁magn	-6132
▁destroyed	-6133
abwe	-6134
▁Massachusetts	-6135
▁pushing	-6136
ourney	-6137
▁window	-6138
▁circumstances	-6139
▁writers	-6140
igned	-6141
imbabwe	-6142
▁Ray	-6143
▁returns	-6144
▁resort	-6145
▁leaves	-6146
▁Diego	-6147
▁casual	-6148
▁kit	-6149
zai	-6150
▁leads	-6151
aire	-6152
▁clubs	-6153
▁1998	-6154
▁basket	-6155
▁tackle	-6156
water	-6157
▁dismissed	-6158
▁Minnes	-6159
▁Hur	-6160
▁overs	-6161
ancellor	-6162
▁attempted	-6163
DP	-6164
▁Wat	-6165
▁fol	-6166
▁sy	-6167
iences	-6168
utely	-6169
stone	-6170
▁abroad	-6171
▁Yahoo	-6172
▁identify	-6173
▁Qaeda	-6174
▁actress	-6175
▁earn	-6176
▁Venez	-6177
▁USA	-6178
▁claiming	-6179
▁00	-6180
▁Feder	-6181
do	-6182
▁pal	-6183
▁condem	-6184
▁Gib	-6185
▁Blue	-6186
▁independence	-6187
ship	-6188
▁duty	-6189
▁drinking	-6190
▁Enter	-6191
▁jumped	-6192
▁flying	-6193
▁behavior	-6194
▁Minnesota	-6195
▁behavi	-6196
ologist	-6197
▁Shar	-6198
worth	-6199
▁pump	-6200
▁activists	-6201
▁Dal	-6202
▁Dallas	-6203
▁anniversary	-6204
▁ped	-6205
▁Venezuel	-6206
encing	-6207
▁belief	-6208
▁actual	-6209
▁hed	-6210
▁encourage	-6211
▁variety	-6212
▁Arsenal	-6213
▁drama	-6214
▁entertainment	-6215
▁Mu	-6216
▁impress	-6217
▁bonds	-6218
▁Such	-6219
▁64	-6220
▁calc	-6221
▁59	-6222
▁heading	-6223
▁Yankees	-6224
▁becomes	-6225
erved	-6226
▁Pent	-6227
▁Queen	-6228
▁Radio	-6229
abul	-6230
▁Las	-6231
▁Nic	-6232
▁affairs	-6233
▁NHS	-6234
-10	-6235
fall	-6236
▁beautiful	-6237
ais	-6238
▁Alan	-6239
▁Dod	-6240
▁properties	-6241
▁nurs	-6242
▁sets	-6243
▁damaged	-6244
▁filled	-6245
▁Corporation	-6246
▁devast	-6247
▁matters	-6248
▁ring	-6249
▁festival	-6250
▁Simon	-6251
▁Leg	-6252
▁2,000	-6253
▁Mush	-6254
▁assistance	-6255
key	-6256
▁surprising	-6257
▁values	-6258
abled	-6259
▁Haiti	-6260
▁Corn	-6261
▁Van	-6262
chang	-6263
▁owns	-6264
▁NFL	-6265
▁whatever	-6266
imp	-6267
ih	-6268
abbed	-6269
▁payment	-6270
ords	-6271
▁Global	-6272
▁1.4	-6273
▁Env	-6274
▁Maryland	-6275
mate	-6276
▁Sl	-6277
▁Robinson	-6278
atures	-6279
aven	-6280
▁impossible	-6281
▁mut	-6282
▁demands	-6283
▁700	-6284
▁photos	-6285
▁agenda	-6286
▁endors	-6287
▁apply	-6288
▁dinner	-6289
ao	-6290
▁Indones	-6291
bro	-6292
acks	-6293
▁billions	-6294
▁expansion	-6295
▁Allen	-6296
▁Major	-6297
▁machine	-6298
ala	-6299
▁Chairman	-6300
▁Sum	-6301
otic	-6302
▁Dutch	-6303
▁rol	-6304
▁premium	-6305
▁reducing	-6306
acement	-6307
▁introdu	-6308
▁Str	-6309
▁eighth	-6310
▁theat	-6311
▁Tai	-6312
itely	-6313
▁manage	-6314
▁fill	-6315
▁wake	-6316
▁interesting	-6317
▁seasons	-6318
▁Academ	-6319
▁Top	-6320
▁favorite	-6321
▁argue	-6322
▁surve	-6323
▁reduction	-6324
▁margin	-6325
▁usual	-6326
▁kil	-6327
▁migr	-6328
▁Ky	-6329
star	-6330
▁Report	-6331
▁Time	-6332
resent	-6333
▁client	-6334
eeper	-6335
▁2.5	-6336
▁gap	-6337
▁Palestinians	-6338
itable	-6339
SP	-6340
egas	-6341
▁technical	-6342
▁equal	-6343
▁practices	-6344
▁correspond	-6345
omet	-6346
▁distribut	-6347
▁identity	-6348
▁adviser	-6349
cont	-6350
▁gathered	-6351
agen	-6352
▁registered	-6353
▁fixed	-6354
▁alive	-6355
▁empt	-6356
▁Id	-6357
▁neither	-6358
▁sect	-6359
▁awarded	-6360
▁System	-6361
▁Chen	-6362
overty	-6363
▁Children	-6364
▁pilot	-6365
▁67	-6366
▁bright	-6367
▁yen	-6368
▁66	-6369
▁McD	-6370
▁requires	-6371
arraf	-6372
▁roughly	-6373
jad	-6374
▁Hay	-6375
▁Ox	-6376
▁Wilson	-6377
▁false	-6378
▁sand	-6379
pread	-6380
▁boat	-6381
▁fled	-6382
▁Sand	-6383
▁performed	-6384
▁administ	-6385
▁dance	-6386
▁remove	-6387
adow	-6388
▁Jose	-6389
▁aside	-6390
▁62	-6391
▁wides	-6392
▁cultural	-6393
▁personnel	-6394
▁cable	-6395
nd	-6396
▁Hug	-6397
▁strategic	-6398
▁Analysts	-6399
▁hole	-6400
▁learning	-6401
▁threats	-6402
▁Sea	-6403
▁excell	-6404
away	-6405
▁Conservative	-6406
▁unusual	-6407
▁Museum	-6408
▁trees	-6409
raig	-6410
▁Anth	-6411
▁turns	-6412
izes	-6413
IL	-6414
▁Soviet	-6415
▁located	-6416
▁Viet	-6417
▁Executive	-6418
▁monthly	-6419
oral	-6420
▁materials	-6421
▁Bowl	-6422
▁sustain	-6423
hman	-6424
▁Vol	-6425
▁era	-6426
▁accompan	-6427
▁mountain	-6428
icon	-6429
▁garden	-6430
▁artists	-6431
▁troubled	-6432
tered	-6433
half	-6434
▁stro	-6435
▁Eastern	-6436
▁surrounding	-6437
▁tested	-6438
▁memory	-6439
▁gross	-6440
▁songs	-6441
▁effectively	-6442
▁prompted	-6443
▁elder	-6444
▁wish	-6445
▁function	-6446
▁newly	-6447
▁Uk	-6448
▁Wind	-6449
ece	-6450
▁stronger	-6451
▁swim	-6452
apped	-6453
▁concert	-6454
▁thinks	-6455
▁Musharraf	-6456
▁bom	-6457
▁u	-6458
▁estimate	-6459
▁Way	-6460
▁68	-6461
▁tun	-6462
▁sharply	-6463
▁monit	-6464
▁listed	-6465
▁beating	-6466
▁Add	-6467
▁Gall	-6468
▁Bh	-6469
▁vital	-6470
▁pen	-6471
▁slump	-6472
▁dramatic	-6473
▁promise	-6474
▁surprised	-6475
▁temporary	-6476
▁witnesses	-6477
ricane	-6478
OT	-6479
▁Land	-6480
agged	-6481
▁portfol	-6482
▁CD	-6483
▁iPhone	-6484
ET	-6485
veland	-6486
▁Marc	-6487
▁widespread	-6488
▁begins	-6489
▁forecl	-6490
▁employee	-6491
▁discussion	-6492
gus	-6493
10	-6494
fur	-6495
whel	-6496
▁enh	-6497
▁Pitts	-6498
ishes	-6499
▁rush	-6500
▁Your	-6501
▁Camb	-6502
etime	-6503
▁entirely	-6504
▁bound	-6505
▁dogs	-6506
▁sad	-6507
ails	-6508
▁semi	-6509
▁factor	-6510
----	-6511
▁72	-6512
▁stem	-6513
▁incent	-6514
▁formal	-6515
▁captured	-6516
▁responded	-6517
▁nice	-6518
▁trillion	-6519
▁promote	-6520
▁explained	-6521
▁Twitter	-6522
▁sch	-6523
▁lit	-6524
▁soldier	-6525
▁hitting	-6526
▁Cro	-6527
▁tomorrow	-6528
▁drew	-6529
echan	-6530
▁Fair	-6531
▁pray	-6532
▁minority	-6533
▁Development	-6534
▁comprom	-6535
eland	-6536
ked	-6537
▁earthquake	-6538
▁originally	-6539
▁restaurants	-6540
cle	-6541
▁nationwide	-6542
die	-6543
▁journey	-6544
▁evac	-6545
ureau	-6546
▁prisoners	-6547
▁invent	-6548
▁remarks	-6549
▁Ross	-6550
▁rooms	-6551
▁switch	-6552
▁helps	-6553
▁regulators	-6554
▁Cuba	-6555
▁proud	-6556
▁1.3	-6557
election	-6558
▁Environment	-6559
▁ge	-6560
▁Vegas	-6561
▁preparing	-6562
▁Yemen	-6563
▁mixed	-6564
reek	-6565
▁compete	-6566
uts	-6567
itage	-6568
▁pledged	-6569
▁angry	-6570
▁anger	-6571
▁Cleveland	-6572
iner	-6573
▁forest	-6574
ups	-6575
,2	-6576
▁Labor	-6577
▁breaking	-6578
idelines	-6579
▁minimum	-6580
▁anc	-6581
rees	-6582
▁spr	-6583
▁deeply	-6584
abilities	-6585
▁tank	-6586
▁Karzai	-6587
▁Care	-6588
▁equival	-6589
▁surface	-6590
▁reaction	-6591
▁adopt	-6592
▁parliamentary	-6593
▁lenders	-6594
ordan	-6595
eeping	-6596
▁Latin	-6597
▁Sk	-6598
▁stream	-6599
▁remind	-6600
lyn	-6601
▁Alaska	-6602
▁dealing	-6603
merce	-6604
ography	-6605
▁Gi	-6606
▁speculation	-6607
▁extend	-6608
▁financing	-6609
aze	-6610
▁beach	-6611
iate	-6612
inct	-6613
▁Goldman	-6614
▁conver	-6615
▁recovered	-6616
vant	-6617
▁Consum	-6618
▁detained	-6619
▁employment	-6620
▁structure	-6621
▁collapsed	-6622
boy	-6623
arch	-6624
▁Bry	-6625
▁plun	-6626
▁prize	-6627
▁swine	-6628
▁electronic	-6629
▁bear	-6630
▁Atlantic	-6631
▁patrol	-6632
▁ham	-6633
▁limits	-6634
▁vulnerable	-6635
▁Kansas	-6636
▁85	-6637
olis	-6638
▁Hampshire	-6639
week	-6640
▁recall	-6641
▁Tok	-6642
ivision	-6643
▁occasion	-6644
ports	-6645
can	-6646
oster	-6647
▁diplomatic	-6648
ocol	-6649
haul	-6650
▁insist	-6651
▁Mexican	-6652
▁dil	-6653
▁Anthony	-6654
riers	-6655
▁enem	-6656
▁laid	-6657
▁termin	-6658
▁Pentagon	-6659
essed	-6660
▁photo	-6661
▁stun	-6662
▁presidency	-6663
▁arts	-6664
organ	-6665
inejad	-6666
▁detain	-6667
▁baseball	-6668
▁193	-6669
▁trail	-6670
▁cy	-6671
lets	-6672
▁Bru	-6673
▁wave	-6674
ribute	-6675
▁Authorities	-6676
▁discussed	-6677
sters	-6678
inder	-6679
▁luxury	-6680
anes	-6681
style	-6682
▁ends	-6683
▁discussions	-6684
▁regulatory	-6685
▁Ty	-6686
▁prin	-6687
▁restrictions	-6688
▁pip	-6689
▁understanding	-6690
▁priority	-6691
▁Taiwan	-6692
▁regulation	-6693
la	-6694
▁fundament	-6695
▁Navy	-6696
▁Anderson	-6697
ello	-6698
▁Beach	-6699
▁superv	-6700
assador	-6701
▁Nev	-6702
▁Brother	-6703
▁NASA	-6704
▁Michel	-6705
olas	-6706
▁schedule	-6707
▁overnight	-6708
▁quarterback	-6709
▁Transport	-6710
gents	-6711
▁Barb	-6712
▁Pittsburgh	-6713
▁worker	-6714
▁Authority	-6715
ova	-6716
▁diver	-6717
▁venture	-6718
▁asset	-6719
icial	-6720
▁Elect	-6721
▁suffer	-6722
grade	-6723
▁sweet	-6724
▁counts	-6725
rim	-6726
▁Seattle	-6727
▁paint	-6728
▁streak	-6729
▁scientific	-6730
▁Wright	-6731
EA	-6732
rad	-6733
▁canc	-6734
▁cited	-6735
▁DNA	-6736
▁fant	-6737
▁clothes	-6738
poin	-6739
▁subm	-6740
isan	-6741
▁Gal	-6742
▁relatives	-6743
▁Ut	-6744
▁cry	-6745
▁Profile	-6746
▁THE	-6747
ita	-6748
▁Cop	-6749
▁managing	-6750
▁struggled	-6751
▁accel	-6752
ovic	-6753
▁Academy	-6754
▁Hu	-6755
▁permanent	-6756
▁Ian	-6757
▁stepped	-6758
eller	-6759
▁vess	-6760
▁typically	-6761
▁gro	-6762
▁communications	-6763
▁concluded	-6764
igation	-6765
cription	-6766
owners	-6767
▁61	-6768
▁franch	-6769
▁understood	-6770
▁Whe	-6771
▁musical	-6772
▁feels	-6773
▁talent	-6774
▁rocket	-6775
▁Prosecut	-6776
▁overwhel	-6777
▁Lind	-6778
▁improvement	-6779
▁congressional	-6780
olen	-6781
▁fought	-6782
▁ultimately	-6783
▁tells	-6784
Call	-6785
▁vision	-6786
▁obvious	-6787
▁regulations	-6788
▁unclear	-6789
wing	-6790
▁backing	-6791
rav	-6792
▁lie	-6793
profit	-6794
rell	-6795
uous	-6796
▁plastic	-6797
▁pieces	-6798
▁river	-6799
▁rum	-6800
▁breast	-6801
▁partly	-6802
▁strongly	-6803
▁Indust	-6804
iden	-6805
▁myst	-6806
▁Luc	-6807
▁Jason	-6808
▁Ahmadinejad	-6809
▁shif	-6810
▁poverty	-6811
▁Bir	-6812
▁Mir	-6813
▁divor	-6814
itarian	-6815
mosp	-6816
▁Ever	-6817
▁sees	-6818
pass	-6819
▁Second	-6820
▁coin	-6821
CO	-6822
ppers	-6823
amber	-6824
▁militant	-6825
casts	-6826
▁250	-6827
▁instance	-6828
▁Wild	-6829
rators	-6830
▁upset	-6831
oration	-6832
▁awards	-6833
▁Crown	-6834
amples	-6835
▁pup	-6836
▁survived	-6837
aken	-6838
▁Stanley	-6839
▁resolution	-6840
▁improving	-6841
▁Media	-6842
▁organis	-6843
▁78	-6844
▁ride	-6845
▁behaviour	-6846
▁stadium	-6847
▁badly	-6848
▁Oil	-6849
▁granted	-6850
▁Director	-6851
ram	-6852
ek	-6853
oline	-6854
▁63	-6855
▁Abu	-6856
▁Balt	-6857
▁pattern	-6858
ella	-6859
▁combination	-6860
First	-6861
▁honor	-6862
▁modest	-6863
▁Fil	-6864
▁outcome	-6865
▁Champions	-6866
▁unn	-6867
earing	-6868
▁chosen	-6869
▁citing	-6870
▁causes	-6871
▁edition	-6872
agan	-6873
▁bonuses	-6874
rated	-6875
oned	-6876
▁Roberts	-6877
ielder	-6878
▁Ros	-6879
▁bailout	-6880
break	-6881
▁helicopter	-6882
▁shape	-6883
▁vaccine	-6884
daq	-6885
dy	-6886
▁Quote	-6887
▁Romney	-6888
▁accur	-6889
▁PC	-6890
▁immigrants	-6891
GEL	-6892
▁Joseph	-6893
▁passenger	-6894
fe	-6895
iano	-6896
itary	-6897
▁Columbia	-6898
▁aggressive	-6899
▁forg	-6900
▁radical	-6901
▁apolog	-6902
▁Nasdaq	-6903
▁Yes	-6904
▁Patrick	-6905
▁letters	-6906
▁file	-6907
force	-6908
▁Anton	-6909
enny	-6910
▁20-	-6911
▁regarding	-6912
▁links	-6913
▁Rangers	-6914
,4	-6915
lers	-6916
▁institution	-6917
,7	-6918
▁apprec	-6919
▁bombing	-6920
▁LOS	-6921
▁Tokyo	-6922
99	-6923
▁adult	-6924
▁reaching	-6925
weight	-6926
uez	-6927
▁economies	-6928
irts	-6929
heim	-6930
▁fighters	-6931
▁pin	-6932
▁computers	-6933
▁eating	-6934
▁initiative	-6935
ga	-6936
▁Jordan	-6937
▁listen	-6938
▁sympt	-6939
▁involvement	-6940
▁ANGEL	-6941
▁Craig	-6942
▁Lake	-6943
▁dry	-6944
▁effic	-6945
unction	-6946
▁multi	-6947
▁harder	-6948
▁Cross	-6949
▁grounds	-6950
▁1960	-6951
▁maximum	-6952
▁subsequ	-6953
▁mine	-6954
▁Hamilton	-6955
▁Stadium	-6956
owell	-6957
▁Jay	-6958
,6	-6959
▁satellite	-6960
▁talked	-6961
arsh	-6962
▁papers	-6963
▁insurgents	-6964
▁Professor	-6965
▁directors	-6966
▁yourself	-6967
▁alert	-6968
▁requirements	-6969
▁follows	-6970
▁Greece	-6971
▁absolutely	-6972
▁Oscar	-6973
▁Perhaps	-6974
▁Dam	-6975
PA	-6976
FirstCall	-6977
▁stayed	-6978
▁explosion	-6979
▁directed	-6980
▁founder	-6981
▁regularly	-6982
▁studio	-6983
▁passes	-6984
▁seed	-6985
free	-6986
▁numerous	-6987
▁Form	-6988
▁5,000	-6989
▁Hond	-6990
▁Orle	-6991
▁busy	-6992
▁Thompson	-6993
▁Each	-6994
▁lunch	-6995
▁Turn	-6996
▁Jam	-6997
▁architect	-6998
▁CH	-6999
▁Dem	-7000
▁dealers	-7001
▁roof	-7002
▁Santa	-7003
▁producers	-7004
▁outstanding	-7005
aret	-7006
law	-7007
▁enthus	-7008
▁Vice	-7009
▁formed	-7010
▁code	-7011
▁distribution	-7012
▁solar	-7013
▁commod	-7014
orry	-7015
backed	-7016
▁ANGELES	-7017
▁Jean	-7018
▁appropriate	-7019
▁factory	-7020
▁faster	-7021
▁discip	-7022
ashing	-7023
arrass	-7024
▁tree	-7025
▁Fergus	-7026
▁escape	-7027
▁loved	-7028
▁intent	-7029
▁saved	-7030
asy	-7031
olds	-7032
osis	-7033
▁CIA	-7034
▁remote	-7035
amo	-7036
▁shops	-7037
▁extraordin	-7038
▁boom	-7039
▁Orleans	-7040
▁copy	-7041
opher	-7042
▁Ant	-7043
▁71	-7044
third	-7045
▁Educ	-7046
▁invited	-7047
▁Motor	-7048
aya	-7049
▁keen	-7050
▁scores	-7051
▁Mand	-7052
▁trick	-7053
▁ratings	-7054
▁Centre	-7055
▁ads	-7056
▁Ronald	-7057
uits	-7058
▁revolution	-7059
▁recon	-7060
▁FT	-7061
▁isol	-7062
lus	-7063
▁empty	-7064
▁guarantee	-7065
▁behalf	-7066
▁ordin	-7067
▁Mug	-7068
▁Standard	-7069
▁waters	-7070
▁founded	-7071
▁stability	-7072
▁Independ	-7073
▁anx	-7074
▁conclus	-7075
▁welcom	-7076
aden	-7077
▁importance	-7078
▁comedy	-7079
▁regions	-7080
▁rating	-7081
▁Sn	-7082
aida	-7083
▁counsel	-7084
▁nominee	-7085
▁Glas	-7086
ikh	-7087
▁cha	-7088
▁criticized	-7089
then	-7090
▁indeed	-7091
▁lots	-7092
▁Channel	-7093
oes	-7094
▁Kelly	-7095
▁reserves	-7096
ugby	-7097
▁democrat	-7098
▁Rio	-7099
▁unions	-7100
▁Stew	-7101
▁stolen	-7102
▁truly	-7103
▁ease	-7104
▁embarrass	-7105
▁Staff	-7106
▁outlook	-7107
bell	-7108
ortunately	-7109
▁Mayor	-7110
rehensive	-7111
stream	-7112
▁transform	-7113
▁equivalent	-7114
,3	-7115
▁toug	-7116
▁instruct	-7117
▁coordin	-7118
▁hired	-7119
▁acquisition	-7120
▁string	-7121
▁reforms	-7122
▁ninth	-7123
iro	-7124
▁controlled	-7125
▁intens	-7126
ses	-7127
▁Pot	-7128
▁Ren	-7129
▁tab	-7130
▁hardly	-7131
▁operate	-7132
▁differences	-7133
▁tourists	-7134
onz	-7135
▁moments	-7136
▁complained	-7137
▁exports	-7138
▁futures	-7139
▁fro	-7140
▁meat	-7141
izon	-7142
▁ment	-7143
▁atmosp	-7144
▁Avenue	-7145
OND	-7146
▁economists	-7147
▁mel	-7148
▁enjoyed	-7149
▁peak	-7150
▁cert	-7151
▁spin	-7152
▁Water	-7153
beat	-7154
odes	-7155
▁sight	-7156
level	-7157
▁tall	-7158
▁height	-7159
▁innoc	-7160
▁substantial	-7161
▁defensive	-7162
▁exclud	-7163
▁interviews	-7164
▁Rice	-7165
▁Foot	-7166
▁Lloy	-7167
ounding	-7168
▁guys	-7169
▁15-	-7170
▁label	-7171
▁abortion	-7172
▁punish	-7173
▁medal	-7174
▁emotional	-7175
▁expense	-7176
▁steel	-7177
ernand	-7178
▁association	-7179
▁IT	-7180
▁essential	-7181
▁Where	-7182
ration	-7183
▁trop	-7184
GA	-7185
▁delegates	-7186
▁1995	-7187
▁detailed	-7188
▁Edin	-7189
▁retailers	-7190
▁Berlin	-7191
gow	-7192
▁collabor	-7193
▁silver	-7194
▁struct	-7195
▁ballot	-7196
American	-7197
▁Series	-7198
▁egg	-7199
▁Ts	-7200
▁deadline	-7201
▁output	-7202
ati	-7203
▁honest	-7204
▁rig	-7205
▁Matthew	-7206
▁selection	-7207
▁fier	-7208
▁divid	-7209
▁Get	-7210
▁beaten	-7211
sen	-7212
icken	-7213
▁handle	-7214
▁prominent	-7215
izz	-7216
▁guardian	-7217
▁shoulder	-7218
▁adopted	-7219
▁newspapers	-7220
▁eval	-7221
▁amounts	-7222
▁DV	-7223
▁delayed	-7224
LC	-7225
▁prosecution	-7226
aug	-7227
▁Putin	-7228
▁Federer	-7229
pm	-7230
▁Rights	-7231
▁Hus	-7232
▁bath	-7233
▁urban	-7234
▁loyal	-7235
vard	-7236
▁mistake	-7237
▁Ferguson	-7238
▁Square	-7239
▁embr	-7240
▁testim	-7241
▁characters	-7242
▁bin	-7243
▁Lar	-7244
▁Tory	-7245
▁Edinburgh	-7246
▁native	-7247
▁joining	-7248
▁Hotel	-7249
▁mir	-7250
kel	-7251
▁pharm	-7252
▁unw	-7253
▁conspir	-7254
▁types	-7255
▁hyp	-7256
▁publ	-7257
▁Shan	-7258
▁exhibition	-7259
▁cancel	-7260
igroup	-7261
▁crop	-7262
hat	-7263
eren	-7264
▁tor	-7265
▁69	-7266
▁creation	-7267
▁Program	-7268
▁bridge	-7269
▁Celt	-7270
▁purpose	-7271
▁mail	-7272
▁3,000	-7273
▁Denver	-7274
▁displ	-7275
abet	-7276
▁sac	-7277
rence	-7278
▁complaint	-7279
▁instru	-7280
▁employers	-7281
▁consequences	-7282
▁76	-7283
ba	-7284
▁meanwhile	-7285
▁primarily	-7286
▁jailed	-7287
▁contained	-7288
▁Ball	-7289
rage	-7290
▁Mugabe	-7291
ouch	-7292
▁Hart	-7293
▁hang	-7294
▁adjust	-7295
▁metal	-7296
▁coffee	-7297
▁airlines	-7298
▁updated	-7299
▁cameras	-7300
rapped	-7301
▁desire	-7302
iser	-7303
emic	-7304
▁Women	-7305
▁representing	-7306
▁Sub	-7307
▁surviv	-7308
▁Sri	-7309
▁Has	-7310
UR	-7311
▁73	-7312
▁Cole	-7313
▁rom	-7314
▁cabinet	-7315
▁hedge	-7316
▁IP	-7317
rett	-7318
▁transl	-7319
▁intense	-7320
▁smoke	-7321
▁Best	-7322
▁teenager	-7323
▁Sony	-7324
▁Adam	-7325
ads	-7326
ouri	-7327
▁terrorists	-7328
ensions	-7329
▁represented	-7330
active	-7331
▁Did	-7332
▁bol	-7333
▁taxpayers	-7334
▁Muslims	-7335
▁Citigroup	-7336
▁salary	-7337
▁AFP	-7338
▁Rick	-7339
▁Arm	-7340
▁nerv	-7341
▁coc	-7342
▁Class	-7343
real	-7344
icate	-7345
▁sky	-7346
▁reward	-7347
▁Mit	-7348
▁mechan	-7349
▁investor	-7350
making	-7351
▁acts	-7352
umes	-7353
▁firef	-7354
▁Disney	-7355
▁hat	-7356
▁brands	-7357
▁crashed	-7358
uations	-7359
▁brings	-7360
▁suggesting	-7361
▁lift	-7362
▁Hy	-7363
iamond	-7364
▁stable	-7365
▁portfolio	-7366
▁Space	-7367
▁pregnant	-7368
▁winners	-7369
▁Biden	-7370
▁yes	-7371
▁Polit	-7372
iki	-7373
▁anonymity	-7374
▁readers	-7375
▁rall	-7376
▁overhaul	-7377
▁strikes	-7378
AM	-7379
▁doors	-7380
vy	-7381
▁bombs	-7382
▁Walk	-7383
▁Bull	-7384
▁provider	-7385
▁Linc	-7386
ollar	-7387
▁1996	-7388
amily	-7389
orage	-7390
▁74	-7391
▁Five	-7392
ishop	-7393
▁Maybe	-7394
▁Aff	-7395
▁Stewart	-7396
▁Airlines	-7397
▁color	-7398
▁Ku	-7399
▁encoun	-7400
▁12-	-7401
▁IS	-7402
▁Lank	-7403
inking	-7404
▁deadly	-7405
▁tribal	-7406
▁Portug	-7407
▁Glasgow	-7408
▁Back	-7409
ective	-7410
▁Hun	-7411
▁elig	-7412
▁jur	-7413
5,000	-7414
uls	-7415
icking	-7416
,8	-7417
chest	-7418
▁excellent	-7419
▁Shiite	-7420
▁Mill	-7421
▁ing	-7422
▁mal	-7423
▁disag	-7424
▁Reid	-7425
▁Game	-7426
bery	-7427
▁Nad	-7428
▁neck	-7429
▁horse	-7430
▁motiv	-7431
▁blocked	-7432
mingham	-7433
▁Airport	-7434
▁Switzer	-7435
▁phil	-7436
▁greenhouse	-7437
lining	-7438
▁classic	-7439
icy	-7440
ibrary	-7441
kes	-7442
▁titles	-7443
▁Mun	-7444
▁achieved	-7445
ums	-7446
▁locations	-7447
▁deliber	-7448
▁frag	-7449
▁agric	-7450
▁Market	-7451
▁30-	-7452
▁cler	-7453
▁Poland	-7454
ibb	-7455
▁guests	-7456
iveness	-7457
▁pleas	-7458
▁Fla	-7459
▁distance	-7460
▁celebrity	-7461
▁lies	-7462
▁Bud	-7463
▁lock	-7464
▁takeover	-7465
▁survive	-7466
▁Prop	-7467
cious	-7468
▁Switzerland	-7469
▁controls	-7470
▁Indiana	-7471
▁1.6	-7472
▁Medicare	-7473
▁weren	-7474
ptions	-7475
▁recommended	-7476
uma	-7477
▁manufacturers	-7478
▁comfortable	-7479
▁winds	-7480
iciency	-7481
▁suddenly	-7482
▁reluct	-7483
▁export	-7484
▁Giants	-7485
▁Barcl	-7486
▁obtained	-7487
▁Belg	-7488
awa	-7489
▁risen	-7490
▁Li	-7491
▁selected	-7492
▁weapon	-7493
▁demanded	-7494
▁Carter	-7495
abeth	-7496
▁Ho	-7497
onto	-7498
▁prepare	-7499
▁assessment	-7500
ulations	-7501
▁tap	-7502
▁Lehman	-7503
apolis	-7504
▁Roger	-7505
oenix	-7506
▁efficient	-7507
▁Argentina	-7508
▁Ret	-7509
▁iron	-7510
idden	-7511
▁reass	-7512
▁wing	-7513
▁therefore	-7514
▁Rodrig	-7515
▁intention	-7516
rible	-7517
▁affair	-7518
▁wider	-7519
▁recalled	-7520
▁symptoms	-7521
▁intercept	-7522
aders	-7523
▁chose	-7524
▁Doc	-7525
▁Pel	-7526
▁inning	-7527
apore	-7528
▁prosecutor	-7529
▁af	-7530
▁signing	-7531
▁barely	-7532
▁threatening	-7533
▁forms	-7534
▁Men	-7535
▁background	-7536
▁Raf	-7537
wen	-7538
iques	-7539
▁Christopher	-7540
▁fed	-7541
ded	-7542
rah	-7543
▁hotels	-7544
▁birthday	-7545
▁technologies	-7546
▁McL	-7547
oln	-7548
▁designer	-7549
▁AC	-7550
▁passion	-7551
aki	-7552
▁verd	-7553
▁cleared	-7554
▁Represent	-7555
▁trials	-7556
▁Gh	-7557
▁exposed	-7558
bar	-7559
▁specialist	-7560
▁1994	-7561
▁imposed	-7562
▁incidents	-7563
▁Arch	-7564
▁Turkish	-7565
ateral	-7566
▁unveiled	-7567
Qaida	-7568
▁gasoline	-7569
▁AM	-7570
▁laugh	-7571
▁thrown	-7572
olitan	-7573
▁handling	-7574
▁unexpected	-7575
▁kidn	-7576
▁forcing	-7577
▁testimony	-7578
▁welcomed	-7579
▁extent	-7580
iece	-7581
prise	-7582
▁economist	-7583
ooth	-7584
▁Singapore	-7585
▁enorm	-7586
▁Motors	-7587
▁Jonathan	-7588
▁sear	-7589
▁calm	-7590
how	-7591
ailand	-7592
▁Phoenix	-7593
▁77	-7594
▁Gary	-7595
▁Rand	-7596
▁Kenya	-7597
▁Greg	-7598
▁Prov	-7599
▁guns	-7600
▁sounds	-7601
▁fields	-7602
▁Warner	-7603
▁exposure	-7604
▁controversy	-7605
▁exceed	-7606
▁defending	-7607
▁Burn	-7608
▁Deb	-7609
▁Guant	-7610
log	-7611
PS	-7612
▁medicine	-7613
▁consumption	-7614
▁Lis	-7615
▁conce	-7616
▁sensitive	-7617
ollah	-7618
▁encouraged	-7619
▁suspicion	-7620
▁elderly	-7621
▁IM	-7622
▁Power	-7623
▁photograp	-7624
▁representatives	-7625
▁demanding	-7626
▁impressive	-7627
▁restruct	-7628
▁concept	-7629
▁Thailand	-7630
▁bac	-7631
usalem	-7632
▁volume	-7633
▁conversation	-7634
▁Milan	-7635
ommod	-7636
▁milk	-7637
azing	-7638
▁Vietnam	-7639
▁challenging	-7640
▁flex	-7641
▁abandoned	-7642
▁1.1	-7643
▁Madrid	-7644
▁trained	-7645
car	-7646
▁strengthen	-7647
▁Jerusalem	-7648
▁glob	-7649
▁occas	-7650
▁50,000	-7651
▁striker	-7652
▁column	-7653
▁Gil	-7654
▁telec	-7655
▁accompl	-7656
▁acquired	-7657
▁subsidi	-7658
▁jet	-7659
▁properly	-7660
▁Tenness	-7661
▁Ban	-7662
▁Toronto	-7663
▁publish	-7664
▁treaty	-7665
▁parking	-7666
▁mood	-7667
▁Birmingham	-7668
▁industries	-7669
▁participants	-7670
▁mob	-7671
▁accus	-7672
▁officially	-7673
▁obst	-7674
▁Bloom	-7675
▁interp	-7676
▁clinical	-7677
ronics	-7678
▁AIG	-7679
eld	-7680
▁inspired	-7681
▁Moore	-7682
imal	-7683
▁LOND	-7684
castle	-7685
▁assass	-7686
▁forget	-7687
▁LONDON	-7688
▁dedicated	-7689
rete	-7690
▁NBA	-7691
▁opposite	-7692
burn	-7693
▁Harris	-7694
▁Syria	-7695
▁comprehensive	-7696
▁Division	-7697
uties	-7698
istol	-7699
▁invasion	-7700
▁id	-7701
rd	-7702
ID	-7703
▁classes	-7704
ache	-7705
▁Network	-7706
▁guess	-7707
ectic	-7708
▁diet	-7709
▁extraordinary	-7710
▁dominated	-7711
ching	-7712
▁conspiracy	-7713
▁Naz	-7714
▁principal	-7715
▁Cz	-7716
▁campaigns	-7717
▁kitchen	-7718
▁Max	-7719
▁aver	-7720
▁likes	-7721
▁channel	-7722
▁Education	-7723
▁marks	-7724
umber	-7725
▁Kos	-7726
▁planet	-7727
▁normally	-7728
▁Bab	-7729
▁extreme	-7730
▁moderate	-7731
▁accommod	-7732
▁stuck	-7733
▁legit	-7734
br	-7735
egraph	-7736
▁Edward	-7737
▁accounting	-7738
▁Euro	-7739
Qaeda	-7740
▁teaching	-7741
▁veget	-7742
lah	-7743
▁absence	-7744
▁BA	-7745
▁investigate	-7746
▁offset	-7747
▁Supp	-7748
ema	-7749
▁Lincoln	-7750
ura	-7751
▁pock	-7752
▁Az	-7753
▁friendly	-7754
▁IN	-7755
▁caution	-7756
▁Wels	-7757
▁Conservatives	-7758
▁walls	-7759
▁Little	-7760
▁Hold	-7761
▁resulted	-7762
▁Nik	-7763
▁prospects	-7764
▁conven	-7765
▁traded	-7766
▁neighbour	-7767
▁Sunni	-7768
▁tools	-7769
▁planes	-7770
▁Mod	-7771
ultural	-7772
▁shed	-7773
iture	-7774
ancer	-7775
▁successfully	-7776
▁SEC	-7777
▁imagine	-7778
▁rapidly	-7779
▁expanded	-7780
▁inspect	-7781
▁downtown	-7782
▁Trade	-7783
▁detention	-7784
itar	-7785
OM	-7786
rene	-7787
iform	-7788
▁Buff	-7789
▁Tennessee	-7790
▁reporter	-7791
▁Terry	-7792
▁fu	-7793
vin	-7794
▁Rome	-7795
otal	-7796
▁Music	-7797
▁Oxford	-7798
chell	-7799
▁satisf	-7800
▁alliance	-7801
▁tum	-7802
▁Khan	-7803
▁Campbell	-7804
▁cul	-7805
▁ST	-7806
▁franchise	-7807
▁delight	-7808
▁error	-7809
▁maint	-7810
▁Sox	-7811
▁scrut	-7812
▁pages	-7813
▁1992	-7814
▁Plan	-7815
▁referring	-7816
cott	-7817
rolled	-7818
▁cricket	-7819
▁knock	-7820
▁virtually	-7821
fast	-7822
ele	-7823
▁crunch	-7824
▁dump	-7825
▁entit	-7826
▁Town	-7827
▁Darling	-7828
▁drawing	-7829
▁atmosphere	-7830
▁rarely	-7831
▁engineering	-7832
▁campus	-7833
▁applied	-7834
▁happening	-7835
▁cooperation	-7836
▁capable	-7837
imore	-7838
▁bow	-7839
▁frequently	-7840
▁entering	-7841
strong	-7842
▁warrant	-7843
▁implic	-7844
▁confront	-7845
sein	-7846
alling	-7847
▁tent	-7848
▁cook	-7849
▁possession	-7850
▁fault	-7851
▁organisation	-7852
▁Barclays	-7853
▁informed	-7854
▁king	-7855
▁fatal	-7856
ether	-7857
▁featured	-7858
▁mouth	-7859
irty	-7860
auty	-7861
▁theory	-7862
▁religion	-7863
▁centers	-7864
▁Information	-7865
upp	-7866
▁dict	-7867
▁pleased	-7868
▁Ha	-7869
▁broader	-7870
AP	-7871
uable	-7872
▁tox	-7873
bul	-7874
▁wheel	-7875
▁quarterly	-7876
▁ordinary	-7877
▁weekly	-7878
▁obviously	-7879
▁Bhut	-7880
▁relative	-7881
▁Rodriguez	-7882
raine	-7883
▁unpre	-7884
▁Newcastle	-7885
▁Near	-7886
▁providers	-7887
▁basketball	-7888
utical	-7889
▁Commons	-7890
▁inev	-7891
▁Indonesia	-7892
cedented	-7893
▁Alexander	-7894
▁repair	-7895
▁ships	-7896
▁guards	-7897
▁Book	-7898
▁tracks	-7899
▁smoking	-7900
▁DVD	-7901
▁gathering	-7902
▁Ast	-7903
▁Bal	-7904
high	-7905
▁compon	-7906
▁engaged	-7907
▁vet	-7908
▁landsc	-7909
▁jack	-7910
▁Arabia	-7911
▁refuge	-7912
▁videos	-7913
▁Tories	-7914
▁Week	-7915
▁UC	-7916
eared	-7917
unior	-7918
▁Science	-7919
▁rebel	-7920
▁wireless	-7921
abetes	-7922
igers	-7923
prime	-7924
▁discount	-7925
▁disappointed	-7926
▁monitoring	-7927
▁McK	-7928
▁Brazilian	-7929
pat	-7930
▁unprecedented	-7931
▁brothers	-7932
mann	-7933
orous	-7934
▁sustained	-7935
aceutical	-7936
itol	-7937
▁filing	-7938
▁provision	-7939
▁Rh	-7940
▁holes	-7941
▁towns	-7942
▁rape	-7943
▁prepar	-7944
▁transp	-7945
▁episode	-7946
oded	-7947
▁Bond	-7948
▁Others	-7949
▁bars	-7950
▁3.5	-7951
asp	-7952
▁GDP	-7953
▁producing	-7954
zen	-7955
▁restore	-7956
▁amend	-7957
▁120	-7958
▁Indeed	-7959
▁Tiger	-7960
▁staying	-7961
▁anywhere	-7962
erb	-7963
▁95	-7964
▁gift	-7965
▁Guardian	-7966
▁Dick	-7967
▁resolve	-7968
▁pending	-7969
ez	-7970
▁races	-7971
▁symp	-7972
▁tensions	-7973
▁homeowners	-7974
▁soph	-7975
▁arrive	-7976
▁connected	-7977
agu	-7978
▁Cost	-7979
▁tennis	-7980
▁replacement	-7981
▁rot	-7982
▁guide	-7983
▁arrival	-7984
▁Sad	-7985
▁forth	-7986
ource	-7987
ami	-7988
wich	-7989
olph	-7990
▁birds	-7991
rooms	-7992
▁hate	-7993
antic	-7994
▁puts	-7995
▁pupils	-7996
anny	-7997
▁Bor	-7998
▁Telegraph	-7999
olid	-8000
▁Eth	-8001
▁Marsh	-8002
Tube	-8003
▁quit	-8004
▁athletes	-8005
▁academic	-8006
avez	-8007
door	-8008
▁promises	-8009
itious	-8010
25	-8011
▁Officer	-8012
▁operator	-8013
▁visits	-8014
▁Whit	-8015
▁Baltimore	-8016
▁88	-8017
▁soc	-8018
▁la	-8019
▁constitu	-8020
▁sparked	-8021
▁Gri	-8022
▁procedures	-8023
▁participate	-8024
ker	-8025
▁beer	-8026
▁performances	-8027
▁Czech	-8028
▁grass	-8029
▁mos	-8030
▁Cook	-8031
▁veterans	-8032
▁tries	-8033
▁Gill	-8034
▁thin	-8035
erald	-8036
▁schol	-8037
▁Lebanon	-8038
▁falls	-8039
▁pound	-8040
▁Bre	-8041
elect	-8042
▁permission	-8043
▁TM	-8044
▁Assembly	-8045
▁journalist	-8046
▁Mitchell	-8047
okes	-8048
▁aides	-8049
lan	-8050
▁interrog	-8051
▁Bos	-8052
net	-8053
greg	-8054
▁Myan	-8055
▁YouTube	-8056
holder	-8057
▁reveal	-8058
▁bonus	-8059
▁appointment	-8060
▁bags	-8061
▁champions	-8062
▁Awards	-8063
▁camps	-8064
arks	-8065
▁20,000	-8066
▁couples	-8067
▁wedding	-8068
▁1.7	-8069
▁Somalia	-8070
anium	-8071
oub	-8072
▁swing	-8073
▁Govern	-8074
actions	-8075
▁thus	-8076
▁Chavez	-8077
▁settled	-8078
rows	-8079
▁Welsh	-8080
rors	-8081
▁Local	-8082
▁Mahm	-8083
▁Myanmar	-8084
▁Dur	-8085
▁Sports	-8086
▁finds	-8087
iani	-8088
anche	-8089
▁Ven	-8090
▁feared	-8091
redit	-8092
▁sufficient	-8093
ovo	-8094
▁racing	-8095
▁slowly	-8096
▁tonight	-8097
▁convin	-8098
▁departure	-8099
▁1.8	-8100
ropolitan	-8101
▁18-	-8102
▁1991	-8103
winning	-8104
▁clothing	-8105
mile	-8106
▁thank	-8107
di	-8108
rical	-8109
▁weigh	-8110
backs	-8111
▁Golden	-8112
eding	-8113
▁Andre	-8114
▁encouraging	-8115
dro	-8116
dr	-8117
▁Sweden	-8118
▁Ark	-8119
▁Sach	-8120
▁extensive	-8121
▁Eliz	-8122
▁windows	-8123
▁repay	-8124
▁typical	-8125
▁respectively	-8126
▁ju	-8127
▁historical	-8128
▁signal	-8129
▁Writ	-8130
▁unknown	-8131
▁Marine	-8132
▁definitely	-8133
▁lights	-8134
▁generate	-8135
▁Rose	-8136
▁bitter	-8137
▁upper	-8138
▁uniform	-8139
century	-8140
hill	-8141
▁adds	-8142
▁Spring	-8143
▁30,000	-8144
▁strict	-8145
▁detainees	-8146
▁kilomet	-8147
▁volat	-8148
▁Ko	-8149
▁vowed	-8150
▁torture	-8151
▁Michelle	-8152
▁je	-8153
▁Patri	-8154
▁secured	-8155
▁bes	-8156
▁Huck	-8157
▁Barry	-8158
▁resigned	-8159
▁blind	-8160
▁landed	-8161
OC	-8162
▁profile	-8163
▁Cabinet	-8164
▁subur	-8165
▁Country	-8166
▁explo	-8167
▁Was	-8168
▁Liberal	-8169
▁divided	-8170
▁Darfur	-8171
▁trucks	-8172
obs	-8173
larg	-8174
stal	-8175
▁sequ	-8176
▁Bridge	-8177
▁referred	-8178
▁delays	-8179
▁defeated	-8180
▁serves	-8181
▁Carlos	-8182
▁category	-8183
▁criticised	-8184
▁inches	-8185
▁symbol	-8186
cons	-8187
▁representative	-8188
orted	-8189
EI	-8190
▁makers	-8191
▁elements	-8192
iminary	-8193
▁collected	-8194
▁FA	-8195
▁relationships	-8196
▁Philipp	-8197
attered	-8198
▁restructuring	-8199
▁Having	-8200
,1	-8201
▁Capitol	-8202
▁halt	-8203
▁Abbas	-8204
alo	-8205
anke	-8206
illance	-8207
rank	-8208
▁appeals	-8209
▁Venezuela	-8210
rob	-8211
▁HIV	-8212
▁Fur	-8213
▁Mohammed	-8214
▁nut	-8215
▁connect	-8216
▁convinced	-8217
uting	-8218
▁aims	-8219
profile	-8220
▁NYSE	-8221
athy	-8222
▁burst	-8223
▁foundation	-8224
million	-8225
▁flew	-8226
▁Colombia	-8227
▁mentioned	-8228
agger	-8229
▁unfair	-8230
uce	-8231
▁bankers	-8232
umbled	-8233
▁tail	-8234
▁stabil	-8235
▁select	-8236
▁Thanks	-8237
ta	-8238
▁moral	-8239
▁opponent	-8240
▁handful	-8241
ologists	-8242
held	-8243
unes	-8244
▁elite	-8245
child	-8246
▁assists	-8247
▁conviction	-8248
▁WH	-8249
▁Bon	-8250
▁Leon	-8251
elfare	-8252
▁advisers	-8253
▁cig	-8254
▁Scient	-8255
▁fate	-8256
▁temperatures	-8257
▁wealthy	-8258
rance	-8259
▁actors	-8260
▁striking	-8261
owing	-8262
▁volunt	-8263
▁saving	-8264
▁Ukraine	-8265
▁eager	-8266
▁teenage	-8267
▁Ay	-8268
▁JP	-8269
▁Shares	-8270
▁efficiency	-8271
▁broker	-8272
ewhat	-8273
▁Technology	-8274
▁Greek	-8275
▁Graham	-8276
▁zero	-8277
▁Brothers	-8278
▁ages	-8279
▁Kentucky	-8280
estyle	-8281
▁capture	-8282
▁relax	-8283
▁mile	-8284
▁useful	-8285
ora	-8286
▁Finance	-8287
▁promising	-8288
▁brill	-8289
▁Cow	-8290
▁Love	-8291
inations	-8292
▁MS	-8293
▁Nich	-8294
▁degrees	-8295
▁Stat	-8296
▁Given	-8297
▁brut	-8298
▁Speaking	-8299
▁Oak	-8300
pective	-8301
▁Award	-8302
▁privacy	-8303
▁Special	-8304
▁eligible	-8305
▁discover	-8306
▁scenes	-8307
▁steady	-8308
▁benchmark	-8309
▁carefully	-8310
▁ambassador	-8311
▁footage	-8312
▁crackdown	-8313
▁politically	-8314
▁transportation	-8315
▁sharing	-8316
illa	-8317
▁Economic	-8318
▁furn	-8319
acking	-8320
▁distr	-8321
col	-8322
sec	-8323
▁Mail	-8324
▁Bureau	-8325
western	-8326
▁obser	-8327
▁Kurd	-8328
▁shadow	-8329
▁Fel	-8330
shore	-8331
▁conced	-8332
▁featuring	-8333
▁incred	-8334
▁fruit	-8335
▁Utah	-8336
▁du	-8337
▁hung	-8338
▁cooper	-8339
▁yellow	-8340
▁theme	-8341
▁motion	-8342
tery	-8343
ione	-8344
▁resulting	-8345
▁Abdul	-8346
▁enormous	-8347
▁preferred	-8348
▁prel	-8349
outheast	-8350
plus	-8351
▁verdict	-8352
ahu	-8353
▁lifted	-8354
▁doubled	-8355
▁statistics	-8356
▁checks	-8357
▁facts	-8358
▁Sean	-8359
▁approached	-8360
▁desperate	-8361
▁Py	-8362
▁referend	-8363
orkshire	-8364
▁disorder	-8365
▁qual	-8366
▁universities	-8367
azon	-8368
▁prohib	-8369
▁guidelines	-8370
▁Football	-8371
▁Rem	-8372
no	-8373
ampton	-8374
bal	-8375
▁Norm	-8376
▁scar	-8377
don	-8378
▁worries	-8379
fielder	-8380
▁license	-8381
idance	-8382
▁SAN	-8383
igger	-8384
▁somewhat	-8385
▁everybody	-8386
offs	-8387
ockey	-8388
▁pursue	-8389
gger	-8390
▁volunteers	-8391
emble	-8392
▁ownership	-8393
▁merger	-8394
▁Elizabeth	-8395
▁Bernanke	-8396
▁keeps	-8397
▁element	-8398
ras	-8399
▁photographs	-8400
▁AL	-8401
mand	-8402
anamo	-8403
bus	-8404
zed	-8405
▁Drug	-8406
▁compromise	-8407
▁sons	-8408
▁Est	-8409
▁Ul	-8410
▁Ker	-8411
phy	-8412
▁Field	-8413
▁republic	-8414
▁taxpayer	-8415
▁BM	-8416
▁Bhutto	-8417
▁Lev	-8418
ulous	-8419
ointing	-8420
ghai	-8421
▁legs	-8422
▁Vis	-8423
hua	-8424
▁Partners	-8425
▁Ferr	-8426
▁covering	-8427
▁lying	-8428
▁raid	-8429
ellect	-8430
▁momentum	-8431
▁merely	-8432
▁borrowers	-8433
▁teenagers	-8434
▁expanding	-8435
▁Guantanamo	-8436
▁ancient	-8437
▁Hear	-8438
▁Hughes	-8439
eted	-8440
▁colon	-8441
▁professionals	-8442
▁revers	-8443
▁protected	-8444
▁creative	-8445
CE	-8446
▁transition	-8447
tering	-8448
▁buried	-8449
reprene	-8450
▁Hom	-8451
▁ranked	-8452
esty	-8453
▁uncertainty	-8454
▁1993	-8455
▁concrete	-8456
▁forecasts	-8457
inding	-8458
▁Oklah	-8459
▁landing	-8460
▁Marg	-8461
rive	-8462
▁Stanford	-8463
▁Sab	-8464
▁Key	-8465
ecticut	-8466
▁agreements	-8467
▁barg	-8468
▁observ	-8469
▁Shanghai	-8470
▁phase	-8471
▁habit	-8472
,9	-8473
eign	-8474
▁Trib	-8475
UL	-8476
▁bases	-8477
▁Family	-8478
acre	-8479
▁Const	-8480
▁Cat	-8481
urt	-8482
▁ranks	-8483
▁choices	-8484
▁Festival	-8485
▁Nelson	-8486
▁Ocean	-8487
▁86	-8488
▁rebuild	-8489
▁tea	-8490
▁Lock	-8491
▁assembly	-8492
▁refin	-8493
ito	-8494
▁82	-8495
oner	-8496
▁FDA	-8497
▁weakness	-8498
aughters	-8499
▁praised	-8500
▁2-1	-8501
▁Heath	-8502
▁dyn	-8503
▁machines	-8504
▁Circ	-8505
▁trigg	-8506
▁08	-8507
▁deployed	-8508
▁Investors	-8509
▁exit	-8510
oir	-8511
▁Chancellor	-8512
▁Consumer	-8513
▁Evans	-8514
ductions	-8515
▁borrowing	-8516
▁Huckab	-8517
▁ramp	-8518
▁fundra	-8519
▁advent	-8520
▁popularity	-8521
yt	-8522
▁Jess	-8523
▁recruit	-8524
▁Connecticut	-8525
abad	-8526
▁Barcel	-8527
▁funeral	-8528
▁Never	-8529
▁quake	-8530
▁humans	-8531
▁fishing	-8532
rum	-8533
range	-8534
▁uranium	-8535
▁supports	-8536
▁deterior	-8537
▁routine	-8538
▁discovery	-8539
▁funded	-8540
▁Yorkshire	-8541
▁slipped	-8542
▁complicated	-8543
scale	-8544
oard	-8545
▁disappear	-8546
oca	-8547
▁guest	-8548
▁improvements	-8549
▁spoken	-8550
▁gallon	-8551
final	-8552
▁default	-8553
▁overwhelming	-8554
▁odd	-8555
▁predecess	-8556
▁investigations	-8557
▁Mat	-8558
▁Cru	-8559
iatric	-8560
▁Nevada	-8561
▁24-	-8562
▁map	-8563
▁Cam	-8564
▁Equ	-8565
▁Fernand	-8566
▁expecting	-8567
▁Oklahoma	-8568
▁fundamental	-8569
▁Boeing	-8570
▁Commerce	-8571
▁manner	-8572
▁monitor	-8573
cut	-8574
▁cycle	-8575
▁specifically	-8576
▁shuttle	-8577
RO	-8578
oric	-8579
umph	-8580
idd	-8581
▁Independent	-8582
▁defended	-8583
▁Giul	-8584
▁trips	-8585
▁packed	-8586
▁Bear	-8587
▁contributions	-8588
▁Without	-8589
▁Hard	-8590
▁roles	-8591
▁tone	-8592
osi	-8593
▁99	-8594
▁Barcelona	-8595
▁trains	-8596
uana	-8597
▁diabetes	-8598
▁reserve	-8599
▁Antonio	-8600
▁Poor	-8601
▁plea	-8602
▁advised	-8603
▁depression	-8604
▁genu	-8605
▁totally	-8606
▁stressed	-8607
iac	-8608
▁Lie	-8609
▁celebrate	-8610
oto	-8611
▁performing	-8612
▁competing	-8613
▁assert	-8614
▁84	-8615
▁referendum	-8616
▁Free	-8617
▁membership	-8618
acco	-8619
▁chest	-8620
omp	-8621
▁ski	-8622
▁traveling	-8623
▁viewed	-8624
▁Prosecutors	-8625
▁babies	-8626
ampa	-8627
▁tool	-8628
▁throwing	-8629
▁vig	-8630
▁favourite	-8631
▁NC	-8632
▁erup	-8633
enhagen	-8634
▁quarters	-8635
▁outbreak	-8636
▁cheaper	-8637
▁rely	-8638
▁attractive	-8639
▁carrier	-8640
▁heritage	-8641
▁childhood	-8642
▁escaped	-8643
▁Live	-8644
▁Buck	-8645
▁insists	-8646
▁maintained	-8647
mers	-8648
ayed	-8649
eries	-8650
▁ank	-8651
▁stamp	-8652
▁Bul	-8653
moil	-8654
▁Ltd	-8655
▁extension	-8656
▁difficulties	-8657
▁Safety	-8658
▁Hist	-8659
acher	-8660
▁Take	-8661
▁bomber	-8662
▁attending	-8663
▁jew	-8664
ira	-8665
▁pirates	-8666
▁Brooklyn	-8667
▁infection	-8668
▁Cardiff	-8669
▁anyway	-8670
▁beauty	-8671
zone	-8672
▁Pres	-8673
oren	-8674
▁pig	-8675
▁chap	-8676
aro	-8677
▁surr	-8678
▁preliminary	-8679
▁relie	-8680
wick	-8681
▁Harvard	-8682
▁writes	-8683
▁disappeared	-8684
▁Which	-8685
▁arguing	-8686
▁crews	-8687
▁Nether	-8688
▁16-	-8689
front	-8690
▁Copenhagen	-8691
borne	-8692
▁Dave	-8693
▁Domin	-8694
EM	-8695
oting	-8696
iox	-8697
isp	-8698
ifer	-8699
▁medium	-8700
avi	-8701
hetic	-8702
ibilities	-8703
▁gre	-8704
▁desert	-8705
ext	-8706
▁steep	-8707
▁user	-8708
▁guidance	-8709
▁fairly	-8710
▁Follow	-8711
▁legend	-8712
▁governing	-8713
▁toxic	-8714
▁quant	-8715
▁turmoil	-8716
▁Sky	-8717
▁shouldn	-8718
▁anticipated	-8719
bu	-8720
▁survivors	-8721
▁reasonable	-8722
▁necessarily	-8723
▁Amazon	-8724
▁Stra	-8725
▁stated	-8726
▁Through	-8727
▁rugby	-8728
▁icon	-8729
inter	-8730
hors	-8731
USNewswire	-8732
▁defender	-8733
▁barrels	-8734
▁therapy	-8735
gets	-8736
▁etc	-8737
▁recognized	-8738
▁Crit	-8739
▁attracted	-8740
▁update	-8741
▁ally	-8742
▁Organization	-8743
▁generated	-8744
▁Civil	-8745
▁lady	-8746
▁wonderful	-8747
▁premier	-8748
list	-8749
NP	-8750
▁storage	-8751
IP	-8752
▁nights	-8753
▁Bruce	-8754
▁1950	-8755
▁retailer	-8756
anded	-8757
▁Lions	-8758
▁taste	-8759
▁Fab	-8760
▁longtime	-8761
▁democratic	-8762
200	-8763
▁recording	-8764
▁bub	-8765
ogether	-8766
▁reference	-8767
▁Pier	-8768
▁sugar	-8769
eases	-8770
▁theater	-8771
ela	-8772
▁Lakers	-8773
ambling	-8774
than	-8775
changed	-8776
▁mining	-8777
▁McN	-8778
▁Gonz	-8779
alks	-8780
▁documentary	-8781
▁0.1	-8782
▁upcoming	-8783
▁girlfriend	-8784
▁Mets	-8785
▁affili	-8786
▁urging	-8787
▁affordable	-8788
▁offense	-8789
▁attempting	-8790
▁politician	-8791
▁briefly	-8792
▁residential	-8793
case	-8794
▁searching	-8795
ules	-8796
▁Bow	-8797
▁hip	-8798
▁Until	-8799
▁Watch	-8800
aware	-8801
▁surveillance	-8802
▁indict	-8803
▁Huckabee	-8804
▁shoes	-8805
▁recip	-8806
ctic	-8807
▁79	-8808
▁shout	-8809
▁construct	-8810
tenance	-8811
▁touc	-8812
TS	-8813
▁breaks	-8814
▁disputed	-8815
oping	-8816
▁operators	-8817
-20	-8818
▁memor	-8819
▁Hawai	-8820
▁constitutional	-8821
regon	-8822
▁deny	-8823
▁Tigers	-8824
olly	-8825
ework	-8826
ila	-8827
▁download	-8828
▁carries	-8829
▁87	-8830
ronaut	-8831
▁Project	-8832
▁divorce	-8833
▁casualties	-8834
▁dialogue	-8835
ss	-8836
▁Ba	-8837
olved	-8838
ussels	-8839
ijuana	-8840
▁flaw	-8841
▁wre	-8842
▁Kabul	-8843
▁Adv	-8844
▁dust	-8845
akh	-8846
▁unders	-8847
IM	-8848
▁Bloomberg	-8849
▁ambitious	-8850
▁operates	-8851
▁portray	-8852
▁relevant	-8853
▁diagnosed	-8854
▁81	-8855
▁reck	-8856
▁wars	-8857
▁branch	-8858
▁recommendations	-8859
▁Russell	-8860
▁watchdog	-8861
aved	-8862
▁cin	-8863
▁6-4	-8864
▁knowing	-8865
umin	-8866
▁daughters	-8867
▁arrests	-8868
▁greet	-8869
▁6-3	-8870
▁intellect	-8871
▁stroke	-8872
aser	-8873
▁Sachs	-8874
▁0.2	-8875
▁Fri	-8876
anted	-8877
▁Again	-8878
bing	-8879
▁stages	-8880
▁ru	-8881
iated	-8882
▁resume	-8883
icts	-8884
▁Community	-8885
▁Wayne	-8886
mans	-8887
bor	-8888
▁locked	-8889
▁Netherlands	-8890
idays	-8891
▁contains	-8892
▁tourist	-8893
▁Oregon	-8894
▁Tro	-8895
▁exclusive	-8896
▁cocaine	-8897
▁fleet	-8898
▁odds	-8899
80	-8900
▁ideal	-8901
incial	-8902
▁graduate	-8903
▁TO	-8904
▁finger	-8905
armed	-8906
▁lucky	-8907
▁hide	-8908
▁arguments	-8909
▁End	-8910
▁methods	-8911
▁describe	-8912
▁finances	-8913
▁Nadal	-8914
▁judgment	-8915
▁knocked	-8916
▁dropping	-8917
▁gif	-8918
angel	-8919
▁Congressional	-8920
▁trigger	-8921
▁london	-8922
dale	-8923
▁Nation	-8924
▁fastest	-8925
▁Jenn	-8926
▁missiles	-8927
onnell	-8928
▁posts	-8929
▁humanitarian	-8930
onna	-8931
abama	-8932
icious	-8933
▁RBI	-8934
▁valuable	-8935
mun	-8936
▁hopeful	-8937
wall	-8938
iability	-8939
▁Merrill	-8940
▁Mick	-8941
▁Exper	-8942
▁Light	-8943
▁Orange	-8944
vez	-8945
RAN	-8946
▁Head	-8947
▁Murphy	-8948
▁Tampa	-8949
▁Mahmoud	-8950
eback	-8951
isers	-8952
▁Alliance	-8953
▁neighbors	-8954
xy	-8955
▁dressed	-8956
▁tons	-8957
▁brilliant	-8958
bank	-8959
▁tip	-8960
▁Abdullah	-8961
▁survival	-8962
orious	-8963
▁Lynch	-8964
▁welfare	-8965
▁peaceful	-8966
▁Rub	-8967
▁reverse	-8968
▁squee	-8969
▁strip	-8970
▁foul	-8971
▁uncom	-8972
▁200,000	-8973
▁donations	-8974
▁renewed	-8975
▁Villa	-8976
nation	-8977
▁correspondent	-8978
▁Kosovo	-8979
▁targeting	-8980
▁kicked	-8981
zing	-8982
acular	-8983
▁hadn	-8984
▁legislative	-8985
▁Duke	-8986
▁bombings	-8987
▁0.5	-8988
▁aboard	-8989
▁Chap	-8990
▁bra	-8991
▁formally	-8992
▁requests	-8993
▁triumph	-8994
▁Kirk	-8995
ques	-8996
▁equally	-8997
▁outrage	-8998
▁advocates	-8999
▁recognition	-9000
isons	-9001
▁qualified	-9002
▁regarded	-9003
▁Medved	-9004
▁lessons	-9005
ario	-9006
▁networking	-9007
box	-9008
▁opens	-9009
hr	-9010
▁organized	-9011
▁Giuliani	-9012
▁Hispan	-9013
vereign	-9014
▁Alabama	-9015
▁essentially	-9016
40	-9017
▁diseases	-9018
▁nobody	-9019
▁mistakes	-9020
mont	-9021
▁mo	-9022
emed	-9023
asey	-9024
▁climbed	-9025
▁homer	-9026
hips	-9027
▁Does	-9028
▁helicopters	-9029
▁Forest	-9030
▁drunk	-9031
▁homeless	-9032
ook	-9033
▁Officers	-9034
▁Medvedev	-9035
▁enemy	-9036
uj	-9037
ags	-9038
▁Ly	-9039
▁commissioner	-9040
▁tourism	-9041
▁Rey	-9042
▁airports	-9043
▁ric	-9044
▁Priv	-9045
▁Gas	-9046
▁dat	-9047
▁postp	-9048
▁acres	-9049
▁entreprene	-9050
▁reop	-9051
▁Pa	-9052
▁sovereign	-9053
rowing	-9054
▁hidden	-9055
▁flooding	-9056
▁Right	-9057
▁longest	-9058
▁virtual	-9059
▁withdrawal	-9060
▁Aud	-9061
▁accord	-9062
▁portion	-9063
isk	-9064
▁knife	-9065
ardo	-9066
▁Les	-9067
▁studied	-9068
▁Nancy	-9069
▁households	-9070
▁initiatives	-9071
▁contribution	-9072
▁tactics	-9073
▁temp	-9074
▁slam	-9075
▁explan	-9076
▁answers	-9077
▁consultant	-9078
▁electoral	-9079
▁traff	-9080
▁appearances	-9081
▁overcome	-9082
▁500,000	-9083
▁Sales	-9084
▁Univers	-9085
,5	-9086
▁Lady	-9087
▁2.2	-9088
▁350	-9089
▁interim	-9090
▁submitted	-9091
▁Senior	-9092
▁firefighters	-9093
▁accusations	-9094
uro	-9095
▁timing	-9096
ounce	-9097
raid	-9098
▁sponsors	-9099
ulating	-9100
▁trapped	-9101
▁remarkable	-9102
azir	-9103
▁Revolution	-9104
▁consensus	-9105
zy	-9106
▁Laure	-9107
lessly	-9108
▁thick	-9109
anyahu	-9110
▁attorneys	-9111
St	-9112
▁communication	-9113
government	-9114
gun	-9115
▁innocent	-9116
okie	-9117
▁intervention	-9118
▁harsh	-9119
▁diplomats	-9120
▁destruction	-9121
aux	-9122
ixon	-9123
▁strain	-9124
▁resignation	-9125
▁83	-9126
▁orchest	-9127
▁1989	-9128
▁recyc	-9129
▁fasc	-9130
▁Phillips	-9131
appy	-9132
▁Netanyahu	-9133
lando	-9134
▁pure	-9135
▁noticed	-9136
acc	-9137
▁Affairs	-9138
▁screening	-9139
yang	-9140
▁17-	-9141
▁dates	-9142
▁Systems	-9143
through	-9144
aints	-9145
▁obtain	-9146
▁Malays	-9147
▁ocean	-9148
▁warnings	-9149
▁transm	-9150
▁unlike	-9151
▁conservatives	-9152
▁clashes	-9153
brid	-9154
made	-9155
▁Hills	-9156
▁firing	-9157
▁optimistic	-9158
▁taught	-9159
▁Emer	-9160
▁Masters	-9161
▁smugg	-9162
▁decrease	-9163
▁Jane	-9164
▁appealed	-9165
▁requested	-9166
▁echo	-9167
▁indicate	-9168
▁experiences	-9169
▁Opp	-9170
▁genetic	-9171
▁approve	-9172
▁clar	-9173
▁elev	-9174
▁cease	-9175
def	-9176
▁lapt	-9177
▁blocks	-9178
lights	-9179
▁dramatically	-9180
▁unh	-9181
▁bowl	-9182
▁probe	-9183
▁acted	-9184
▁Speaker	-9185
▁Investig	-9186
ailed	-9187
▁AIDS	-9188
▁Louisiana	-9189
▁pollution	-9190
▁Aber	-9191
▁resistance	-9192
▁revel	-9193
▁Nap	-9194
▁killings	-9195
▁escal	-9196
RE	-9197
▁Team	-9198
▁disabled	-9199
▁soil	-9200
▁solo	-9201
▁unrest	-9202
▁covers	-9203
▁toler	-9204
▁sed	-9205
▁dub	-9206
▁crown	-9207
▁Pope	-9208
▁Jen	-9209
▁Nigeria	-9210
▁Chile	-9211
▁protecting	-9212
▁maintenance	-9213
▁Pelosi	-9214
▁4,000	-9215
▁Pop	-9216
▁Sav	-9217
▁dividend	-9218
▁moon	-9219
▁wore	-9220
▁dating	-9221
▁spell	-9222
▁hosts	-9223
▁traged	-9224
▁Bristol	-9225
▁ankle	-9226
▁qualify	-9227
onic	-9228
osa	-9229
shot	-9230
▁Morris	-9231
▁Build	-9232
thirds	-9233
▁Brussels	-9234
▁2-	-9235
▁Mort	-9236
▁junior	-9237
▁Merc	-9238
▁envoy	-9239
,0	-9240
▁projected	-9241
▁Griff	-9242
▁CO	-9243
phone	-9244
▁explosives	-9245
▁Pay	-9246
▁questioning	-9247
stan	-9248
ippi	-9249
anna	-9250
▁proportion	-9251
▁developments	-9252
▁Sheriff	-9253
▁installed	-9254
▁Defence	-9255
atar	-9256
▁invested	-9257
omed	-9258
▁Islamist	-9259
lu	-9260
▁2-0	-9261
▁spotted	-9262
▁coinc	-9263
iration	-9264
▁Cy	-9265
▁alt	-9266
▁comeback	-9267
▁recognize	-9268
coni	-9269
▁plate	-9270
seeded	-9271
▁rushed	-9272
ibbean	-9273
▁Insurance	-9274
▁Verizon	-9275
▁celebrated	-9276
15	-9277
▁troop	-9278
▁swept	-9279
▁techniques	-9280
▁triggered	-9281
▁Express	-9282
▁tougher	-9283
▁proof	-9284
▁Wells	-9285
▁await	-9286
▁realize	-9287
▁IMF	-9288
▁Freddie	-9289
▁enable	-9290
▁mothers	-9291
inely	-9292
tic	-9293
▁nort	-9294
▁Orlando	-9295
▁observers	-9296
▁aer	-9297
▁consistent	-9298
▁robbery	-9299
▁cock	-9300
▁Silver	-9301
ikes	-9302
▁retain	-9303
▁Larry	-9304
▁exception	-9305
▁embassy	-9306
kh	-9307
▁royal	-9308
leading	-9309
▁Holl	-9310
▁interviewed	-9311
ricts	-9312
▁spots	-9313
▁Simpson	-9314
▁broadc	-9315
▁disclosed	-9316
▁lender	-9317
ingu	-9318
▁suspension	-9319
▁cauc	-9320
▁Eight	-9321
▁rounds	-9322
tha	-9323
▁pulling	-9324
▁Much	-9325
erg	-9326
▁desk	-9327
▁aide	-9328
▁repeat	-9329
▁slowdown	-9330
▁awareness	-9331
▁Kate	-9332
▁Hud	-9333
▁transferred	-9334
▁innovative	-9335
▁contacted	-9336
▁sheet	-9337
▁theft	-9338
ourne	-9339
▁surely	-9340
FA	-9341
▁introduce	-9342
▁Charlie	-9343
▁Syd	-9344
▁consolid	-9345
▁Chase	-9346
iffs	-9347
▁contribute	-9348
finals	-9349
▁purchased	-9350
▁oldest	-9351
▁memorial	-9352
▁transaction	-9353
▁entitled	-9354
▁chann	-9355
▁Dougl	-9356
▁constant	-9357
▁landscape	-9358
rac	-9359
▁caut	-9360
▁legacy	-9361
overs	-9362
▁provincial	-9363
▁philos	-9364
▁Neil	-9365
iti	-9366
▁Night	-9367
ye	-9368
▁folks	-9369
▁autumn	-9370
▁impl	-9371
bel	-9372
▁ow	-9373
▁Susan	-9374
▁privately	-9375
▁loud	-9376
▁Wi	-9377
▁astronaut	-9378
▁14-	-9379
▁surrounded	-9380
▁UBS	-9381
▁Nearly	-9382
▁undert	-9383
▁192	-9384
▁admit	-9385
▁addressed	-9386
▁trends	-9387
▁pipeline	-9388
onald	-9389
▁Victoria	-9390
▁vacation	-9391
▁involves	-9392
▁exciting	-9393
▁Icel	-9394
▁tape	-9395
▁finals	-9396
iang	-9397
▁impose	-9398
elta	-9399
ture	-9400
▁Dean	-9401
▁persuade	-9402
▁Len	-9403
▁Leader	-9404
▁comparison	-9405
person	-9406
▁condemned	-9407
▁Caribbean	-9408
▁dies	-9409
▁Nicolas	-9410
rific	-9411
Ch	-9412
▁Jews	-9413
▁Iceland	-9414
▁scrutiny	-9415
▁purchases	-9416
iety	-9417
▁ignored	-9418
▁Protection	-9419
▁Missouri	-9420
▁chef	-9421
lad	-9422
▁raw	-9423
▁pledge	-9424
▁containing	-9425
▁Girl	-9426
▁thousand	-9427
▁Spr	-9428
▁Philip	-9429
▁procedure	-9430
ima	-9431
▁nonprofit	-9432
▁Roll	-9433
▁Later	-9434
▁ourselves	-9435
▁proceedings	-9436
▁Pen	-9437
▁datab	-9438
▁Doct	-9439
▁travelling	-9440
▁traders	-9441
▁flash	-9442
▁villages	-9443
▁nervous	-9444
▁freeze	-9445
▁Assist	-9446
▁Arn	-9447
▁competitors	-9448
▁attitude	-9449
▁Ted	-9450
▁copies	-9451
▁annually	-9452
ardens	-9453
▁presum	-9454
▁reconcil	-9455
▁Whether	-9456
▁developers	-9457
eway	-9458
▁teach	-9459
▁Leices	-9460
▁Laur	-9461
▁Governor	-9462
page	-9463
▁Maria	-9464
▁treas	-9465
▁hire	-9466
▁burned	-9467
12	-9468
▁Nobel	-9469
▁proven	-9470
▁Fe	-9471
▁chat	-9472
▁phen	-9473
▁fare	-9474
▁scre	-9475
ript	-9476
▁Credit	-9477
▁breath	-9478
▁Mumb	-9479
▁swimming	-9480
▁Control	-9481
▁killer	-9482
▁Delta	-9483
▁Thous	-9484
▁1-0	-9485
osures	-9486
▁Iraqis	-9487
▁Sydney	-9488
▁penalties	-9489
▁HB	-9490
isive	-9491
▁Grant	-9492
▁Lanc	-9493
▁attacking	-9494
haw	-9495
▁thoughts	-9496
rimination	-9497
▁Should	-9498
▁Lanka	-9499
▁sophistic	-9500
▁1,500	-9501
agg	-9502
▁adapt	-9503
▁burden	-9504
▁amazing	-9505
▁reflected	-9506
esc	-9507
▁stone	-9508
▁reject	-9509
▁Nash	-9510
issippi	-9511
▁spac	-9512
▁Madoff	-9513
▁rand	-9514
largest	-9515
▁depth	-9516
ackers	-9517
▁periods	-9518
▁utility	-9519
▁engage	-9520
▁Ple	-9521
minster	-9522
▁funny	-9523
lusconi	-9524
▁somewhere	-9525
▁Inf	-9526
▁incentives	-9527
▁Had	-9528
▁balls	-9529
RC	-9530
▁subprime	-9531
▁merch	-9532
mind	-9533
▁Arts	-9534
▁shocked	-9535
ument	-9536
▁ranging	-9537
▁soul	-9538
▁Fle	-9539
▁ty	-9540
liest	-9541
▁Hous	-9542
▁cope	-9543
▁singing	-9544
▁racial	-9545
▁caps	-9546
▁Berlusconi	-9547
▁Raj	-9548
▁beef	-9549
aver	-9550
▁Hussein	-9551
▁mountains	-9552
▁chronic	-9553
▁adequ	-9554
▁Rodham	-9555
▁brown	-9556
dollar	-9557
▁bip	-9558
▁Broadway	-9559
omic	-9560
terror	-9561
▁citizen	-9562
▁nav	-9563
rator	-9564
▁craft	-9565
▁crimin	-9566
▁terrible	-9567
aron	-9568
▁personally	-9569
▁dying	-9570
▁finishing	-9571
cill	-9572
▁senators	-9573
aning	-9574
▁promoting	-9575
▁Click	-9576
party	-9577
hall	-9578
▁tear	-9579
▁Hurricane	-9580
▁employed	-9581
▁Donald	-9582
▁cos	-9583
▁hiring	-9584
▁accompanied	-9585
▁successor	-9586
▁Meh	-9587
▁Ahmed	-9588
▁landmark	-9589
▁afraid	-9590
▁investigated	-9591
onsin	-9592
▁acceler	-9593
▁revised	-9594
▁intim	-9595
gate	-9596
▁Nat	-9597
▁latter	-9598
▁Price	-9599
▁Common	-9600
▁Emb	-9601
selling	-9602
▁ce	-9603
▁subsidiary	-9604
▁blank	-9605
istent	-9606
▁focusing	-9607
▁0.3	-9608
▁Ap	-9609
▁distinct	-9610
aults	-9611
▁hosted	-9612
▁lung	-9613
▁Wisc	-9614
▁debts	-9615
pace	-9616
▁Following	-9617
▁Tech	-9618
▁liquidity	-9619
▁2.3	-9620
▁conventional	-9621
▁crowds	-9622
▁scrap	-9623
MI	-9624
▁Ju	-9625
empl	-9626
▁1.9	-9627
iy	-9628
▁assume	-9629
▁Brun	-9630
▁devastating	-9631
▁Cust	-9632
▁sustainable	-9633
▁vs	-9634
▁treatments	-9635
▁Pass	-9636
▁6-2	-9637
▁Unlike	-9638
▁burning	-9639
▁Hundred	-9640
▁Mumbai	-9641
▁Bernard	-9642
bec	-9643
▁Call	-9644
ifications	-9645
▁disappointing	-9646
▁Swedish	-9647
▁ambul	-9648
▁seeks	-9649
▁valid	-9650
▁Insp	-9651
ivan	-9652
45	-9653
▁rescued	-9654
▁Horn	-9655
▁minds	-9656
▁reluctant	-9657
oning	-9658
▁shore	-9659
aping	-9660
gged	-9661
▁operated	-9662
▁sectors	-9663
▁Eag	-9664
▁Lane	-9665
▁donors	-9666
▁Peace	-9667
▁carriers	-9668
▁negotiating	-9669
▁stance	-9670
▁challenged	-9671
▁Airways	-9672
▁Mississippi	-9673
▁Commissioner	-9674
▁foreclosure	-9675
▁Kaz	-9676
▁Wolf	-9677
▁Douglas	-9678
▁Wisconsin	-9679
▁conclusion	-9680
▁25-	-9681
▁Bryant	-9682
father	-9683
▁influential	-9684
▁testified	-9685
▁Serbia	-9686
▁reflects	-9687
▁hors	-9688
▁tribute	-9689
▁painting	-9690
▁educational	-9691
ested	-9692
AF	-9693
▁Sot	-9694
▁luck	-9695
▁Albert	-9696
wear	-9697
▁stup	-9698
▁Lloyds	-9699
▁cup	-9700
▁Bart	-9701
▁Base	-9702
▁email	-9703
▁closure	-9704
▁Lam	-9705
▁Cooper	-9706
▁Deputy	-9707
▁excited	-9708
▁denies	-9709
perform	-9710
▁Beat	-9711
▁delivering	-9712
▁borders	-9713
irm	-9714
▁enrich	-9715
▁contractors	-9716
▁polling	-9717
aimed	-9718
▁smooth	-9719
▁licens	-9720
▁ingred	-9721
Mart	-9722
▁frequent	-9723
jection	-9724
▁Poll	-9725
▁fert	-9726
▁pill	-9727
▁tradem	-9728
▁coaches	-9729
▁depending	-9730
▁everywhere	-9731
▁Cond	-9732
▁Hend	-9733
ken	-9734
▁sessions	-9735
▁authors	-9736
▁Jamie	-9737
▁spectacular	-9738
▁deposits	-9739
▁Windows	-9740
▁Slo	-9741
▁offshore	-9742
lif	-9743
▁gotten	-9744
▁drinks	-9745
▁cargo	-9746
▁meters	-9747
▁earning	-9748
▁Unf	-9749
▁divers	-9750
▁experiment	-9751
serv	-9752
▁victories	-9753
▁mainstream	-9754
▁temperature	-9755
▁11-	-9756
▁trem	-9757
▁authorized	-9758
AD	-9759
▁Walker	-9760
▁sentiment	-9761
▁Ra	-9762
▁convert	-9763
▁Environmental	-9764
▁versus	-9765
▁overtime	-9766
▁rises	-9767
▁Warren	-9768
▁Hor	-9769
▁overd	-9770
▁channels	-9771
▁Ports	-9772
▁subsequent	-9773
▁Reagan	-9774
▁pir	-9775
▁fires	-9776
▁Parker	-9777
▁contemporary	-9778
▁principles	-9779
▁playoffs	-9780
▁wreck	-9781
▁2.4	-9782
icked	-9783
▁Cheney	-9784
▁bullet	-9785
▁thorough	-9786
▁Tan	-9787
▁explains	-9788
▁Vick	-9789
▁defl	-9790
▁Twenty	-9791
▁Benn	-9792
▁Turner	-9793
▁pron	-9794
▁tragedy	-9795
▁somehow	-9796
zb	-9797
▁Thousands	-9798
▁publication	-9799
▁FTSE	-9800
▁loose	-9801
▁defendants	-9802
▁solve	-9803
▁Entertain	-9804
▁EC	-9805
▁fake	-9806
▁1988	-9807
▁neighboring	-9808
▁clock	-9809
▁cloud	-9810
▁suppliers	-9811
▁insurgency	-9812
▁stir	-9813
▁Barbara	-9814
▁hanging	-9815
▁Prize	-9816
▁defined	-9817
▁Transportation	-9818
▁phr	-9819
▁imports	-9820
▁Petro	-9821
▁renewable	-9822
▁conservation	-9823
▁plunged	-9824
rets	-9825
▁Bron	-9826
▁Farm	-9827
▁Fisher	-9828
oa	-9829
▁Wimb	-9830
intend	-9831
▁compound	-9832
▁Low	-9833
-19	-9834
▁13-	-9835
▁LA	-9836
addam	-9837
▁Jimmy	-9838
▁Celtic	-9839
▁clash	-9840
▁courses	-9841
lett	-9842
▁torn	-9843
▁midfielder	-9844
60	-9845
km	-9846
▁Hundreds	-9847
▁lifestyle	-9848
▁Clem	-9849
▁4.5	-9850
▁pand	-9851
▁library	-9852
ledon	-9853
▁Robin	-9854
elli	-9855
▁Baker	-9856
▁punishment	-9857
▁memories	-9858
▁Laden	-9859
aly	-9860
ayor	-9861
▁boyfriend	-9862
▁sorry	-9863
▁CC	-9864
▁converted	-9865
▁highway	-9866
▁attached	-9867
▁indictment	-9868
▁considerable	-9869
rystal	-9870
▁fract	-9871
▁schemes	-9872
▁picking	-9873
▁emerge	-9874
▁Hawaii	-9875
ilder	-9876
▁rhet	-9877
▁districts	-9878
▁89	-9879
▁interior	-9880
eva	-9881
▁boxes	-9882
▁Collins	-9883
▁underlying	-9884
▁negotiate	-9885
▁Perry	-9886
▁Revenue	-9887
▁automaker	-9888
▁LLC	-9889
▁studying	-9890
eting	-9891
▁decent	-9892
▁crossing	-9893
arted	-9894
▁shoppers	-9895
▁Jerry	-9896
▁skept	-9897
orate	-9898
▁diox	-9899
▁fulf	-9900
▁argues	-9901
ocolate	-9902
▁northwest	-9903
inge	-9904
▁context	-9905
itched	-9906
▁bust	-9907
▁Egyptian	-9908
▁Singh	-9909
▁SP	-9910
▁Jerem	-9911
VER	-9912
▁attribut	-9913
▁riding	-9914
▁poison	-9915
▁Stu	-9916
▁Ur	-9917
▁FO	-9918
▁gym	-9919
▁Garden	-9920
▁painful	-9921
▁Bah	-9922
▁requiring	-9923
▁Medicine	-9924
▁noting	-9925
▁frozen	-9926
▁Anne	-9927
▁analy	-9928
▁doubts	-9929
▁routes	-9930
▁shareholder	-9931
▁Maj	-9932
▁pricing	-9933
▁vessel	-9934
cia	-9935
▁announcing	-9936
render	-9937
▁Sport	-9938
▁qualifying	-9939
▁careful	-9940
▁suspicious	-9941
oice	-9942
ographic	-9943
▁Han	-9944
▁Pers	-9945
▁Wimbledon	-9946
▁practical	-9947
▁programmes	-9948
atican	-9949
▁enthusi	-9950
▁collision	-9951
▁Constitution	-9952
▁Coach	-9953
▁marijuana	-9954
RI	-9955
roc	-9956
▁foods	-9957
▁rolled	-9958
▁demonstrated	-9959
▁recovering	-9960
▁strange	-9961
ithner	-9962
ilateral	-9963
▁clinic	-9964
▁Further	-9965
gage	-9966
▁Film	-9967
▁Change	-9968
ongyang	-9969
▁deeper	-9970
▁communist	-9971
▁lists	-9972
eria	-9973
▁Arkansas	-9974
▁250,000	-9975
iere	-9976
ints	-9977
▁Interior	-9978
rities	-9979
▁battery	-9980
▁random	-9981
▁Keith	-9982
▁preced	-9983
▁OK	-9984
▁Va	-9985
▁activist	-9986
arms	-9987
▁pilots	-9988
▁manufacturer	-9989
▁Geithner	-9990
inch	-9991
▁Vatican	-9992
▁audiences	-9993
▁drag	-9994
▁accurate	-9995
▁annum	-9996
heastern	-9997
▁mad	-9998
▁Budget	-9999
onia	-10000
▁melt	-10001
▁bone	-10002
▁demonstrations	-10003
▁Adams	-10004
▁Seven	-10005
▁associate	-10006
estone	-10007
▁Jes	-10008
▁Belf	-10009
▁Pyongyang	-10010
▁Metro	-10011
ception	-10012
▁SU	-10013
▁21-	-10014
rupted	-10015
▁purposes	-10016
▁Chad	-10017
▁19-	-10018
ourse	-10019
▁dynam	-10020
▁credits	-10021
▁Juan	-10022
▁sexually	-10023
▁Row	-10024
▁Cad	-10025
▁Bened	-10026
▁Glob	-10027
▁Bes	-10028
▁destination	-10029
▁campaigning	-10030
rous	-10031
ongh	-10032
▁misc	-10033
▁Schwar	-10034
▁Entertainment	-10035
▁underground	-10036
▁experim	-10037
▁midnight	-10038
ulpt	-10039
bound	-10040
▁illustr	-10041
▁Saddam	-10042
▁Travel	-10043
▁Hezb	-10044
▁overturn	-10045
▁Rail	-10046
iors	-10047
▁inmates	-10048
▁Mountain	-10049
▁transactions	-10050
oser	-10051
▁somebody	-10052
▁declining	-10053
▁exha	-10054
▁Beckham	-10055
▁gest	-10056
▁goalk	-10057
iop	-10058
lock	-10059
income	-10060
▁....	-10061
▁Westminster	-10062
▁refugees	-10063
▁launching	-10064
▁Jennifer	-10065
▁bread	-10066
▁Station	-10067
▁bottle	-10068
▁breakfast	-10069
▁Current	-10070
▁Tax	-10071
▁ID	-10072
▁guaranteed	-10073
▁insurers	-10074
▁Austria	-10075
70	-10076
▁UA	-10077
▁2020	-10078
▁indication	-10079
▁highlighted	-10080
▁mun	-10081
mother	-10082
▁realized	-10083
thur	-10084
▁parks	-10085
▁declar	-10086
▁perfectly	-10087
▁emp	-10088
▁riot	-10089
▁troubles	-10090
umbling	-10091
▁Mous	-10092
▁samples	-10093
▁Front	-10094
▁Lawrence	-10095
▁Patriots	-10096
▁BP	-10097
▁IR	-10098
▁robust	-10099
▁bike	-10100
▁absor	-10101
▁Freed	-10102
▁Jets	-10103
▁inaug	-10104
▁pione	-10105
▁offenders	-10106
▁Rac	-10107
▁See	-10108
▁Vik	-10109
king	-10110
▁kinds	-10111
esity	-10112
▁tempor	-10113
▁illegally	-10114
▁expertise	-10115
▁Fav	-10116
▁venue	-10117
▁Neither	-10118
▁Representatives	-10119
razy	-10120
▁Gab	-10121
▁40,000	-10122
▁Stevens	-10123
ienn	-10124
dles	-10125
▁shelter	-10126
cies	-10127
▁organic	-10128
▁commanders	-10129
▁Davies	-10130
▁scholars	-10131
athon	-10132
▁Gay	-10133
▁headlines	-10134
mert	-10135
▁rebound	-10136
▁unt	-10137
▁stupid	-10138
▁hunt	-10139
▁Workers	-10140
acted	-10141
▁Portsmouth	-10142
ocation	-10143
▁labour	-10144
▁notion	-10145
▁monetary	-10146
lington	-10147
▁breach	-10148
▁Schwarz	-10149
otte	-10150
iciary	-10151
▁segment	-10152
▁coastal	-10153
▁Gun	-10154
▁disappoint	-10155
▁holidays	-10156
▁oppose	-10157
▁celebration	-10158
▁feelings	-10159
▁0.4	-10160
▁salt	-10161
▁difficulty	-10162
▁innovation	-10163
▁liked	-10164
▁boards	-10165
▁Cas	-10166
▁cow	-10167
uccess	-10168
▁Imp	-10169
▁GP	-10170
▁rice	-10171
feld	-10172
mir	-10173
▁Fal	-10174
▁imprison	-10175
▁reun	-10176
▁Vanc	-10177
▁perspective	-10178
▁wage	-10179
▁wages	-10180
▁stunning	-10181
▁nose	-10182
▁gent	-10183
▁Hal	-10184
ighting	-10185
▁Early	-10186
face	-10187
▁Unfortunately	-10188
▁chicken	-10189
▁passage	-10190
▁outf	-10191
▁staged	-10192
▁stabbed	-10193
▁deemed	-10194
▁consulting	-10195
▁fierce	-10196
▁achievement	-10197
▁principle	-10198
▁buyer	-10199
▁perce	-10200
▁nominated	-10201
▁scientist	-10202
▁sweeping	-10203
EP	-10204
asty	-10205
▁Hans	-10206
▁raises	-10207
astrop	-10208
▁wound	-10209
▁traveled	-10210
▁letting	-10211
▁bure	-10212
ouver	-10213
arents	-10214
▁saves	-10215
▁tired	-10216
▁consideration	-10217
▁RBS	-10218
▁Watson	-10219
EG	-10220
▁pregnancy	-10221
aka	-10222
▁prevented	-10223
ION	-10224
▁throws	-10225
▁listening	-10226
unal	-10227
▁rang	-10228
▁ridic	-10229
▁distributed	-10230
▁crossed	-10231
othy	-10232
▁Tam	-10233
▁mild	-10234
▁Hezbollah	-10235
▁soaring	-10236
▁Metropolitan	-10237
▁appealing	-10238
▁nic	-10239
▁shipping	-10240
▁Helmand	-10241
▁reviews	-10242
▁2.7	-10243
▁Georgian	-10244
▁6-	-10245
▁predecessor	-10246
▁Paulson	-10247
▁fitness	-10248
▁economics	-10249
dd	-10250
▁subsidies	-10251
▁Belfast	-10252
▁Portugal	-10253
atri	-10254
▁generations	-10255
▁broadband	-10256
▁blaze	-10257
▁noise	-10258
▁Universal	-10259
gom	-10260
▁buck	-10261
rition	-10262
▁guitar	-10263
▁drilling	-10264
▁substance	-10265
▁eggs	-10266
Gen	-10267
▁meals	-10268
▁oversight	-10269
▁prescription	-10270
abs	-10271
▁buzz	-10272
anches	-10273
▁Wy	-10274
▁Stone	-10275
▁grade	-10276
▁aspects	-10277
▁gunmen	-10278
atched	-10279
▁dealt	-10280
▁visible	-10281
▁Lut	-10282
▁triple	-10283
▁Kurdish	-10284
▁canceled	-10285
kee	-10286
▁dioxide	-10287
▁describes	-10288
▁1979	-10289
▁Communications	-10290
low	-10291
▁swift	-10292
▁Notting	-10293
▁Benedict	-10294
▁JPM	-10295
▁Queens	-10296
▁92	-10297
essing	-10298
orer	-10299
▁impression	-10300
▁neut	-10301
▁rallied	-10302
mith	-10303
▁petition	-10304
ja	-10305
annie	-10306
▁Lama	-10307
▁Look	-10308
▁Move	-10309
▁toil	-10310
▁stops	-10311
▁enhance	-10312
aying	-10313
▁adjusted	-10314
▁Ped	-10315
▁93	-10316
▁silence	-10317
▁pointing	-10318
▁nom	-10319
▁Islamabad	-10320
▁Pear	-10321
ete	-10322
▁CIT	-10323
▁surrender	-10324
▁Yang	-10325
igious	-10326
▁Cuban	-10327
▁Vancouver	-10328
▁sail	-10329
▁electronics	-10330
.99	-10331
▁shirt	-10332
▁eliminate	-10333
▁versions	-10334
▁Investment	-10335
▁cream	-10336
▁lineup	-10337
▁employer	-10338
▁cooking	-10339
▁posed	-10340
▁chip	-10341
▁arriving	-10342
▁waves	-10343
▁speaker	-10344
orld	-10345
▁Polish	-10346
▁Hope	-10347
▁Non	-10348
▁ultimate	-10349
cot	-10350
▁provisions	-10351
gt	-10352
▁Tit	-10353
▁duties	-10354
member	-10355
▁travelers	-10356
▁investing	-10357
urse	-10358
▁900	-10359
▁execution	-10360
▁gri	-10361
▁Po	-10362
▁Bra	-10363
▁Inn	-10364
▁anybody	-10365
▁resum	-10366
▁legally	-10367
▁files	-10368
▁voter	-10369
▁6-1	-10370
▁fool	-10371
▁hybrid	-10372
▁criminals	-10373
▁Run	-10374
bourne	-10375
▁explanation	-10376
▁traditionally	-10377
▁tension	-10378
▁Rud	-10379
▁temporarily	-10380
▁fest	-10381
▁regardless	-10382
adesh	-10383
▁Ward	-10384
▁mini	-10385
▁prosper	-10386
▁stead	-10387
▁wounds	-10388
jan	-10389
ocated	-10390
▁discrimination	-10391
rina	-10392
usive	-10393
▁shall	-10394
▁arrangements	-10395
▁sophisticated	-10396
asks	-10397
▁2.1	-10398
▁pressing	-10399
▁lifetime	-10400
▁immun	-10401
▁Hung	-10402
▁operational	-10403
▁existence	-10404
▁Thomson	-10405
▁sells	-10406
eling	-10407
▁mph	-10408
▁130	-10409
▁Wol	-10410
rics	-10411
des	-10412
▁96	-10413
▁interven	-10414
▁grabbed	-10415
▁damaging	-10416
▁lect	-10417
▁margins	-10418
▁checked	-10419
pts	-10420
heimer	-10421
▁Nort	-10422
▁disturb	-10423
▁intends	-10424
▁Kings	-10425
▁grants	-10426
▁packages	-10427
▁Olmert	-10428
▁presentation	-10429
fers	-10430
▁exploded	-10431
▁violations	-10432
▁websites	-10433
▁personality	-10434
hop	-10435
found	-10436
▁slip	-10437
Mal	-10438
▁sued	-10439
▁deciding	-10440
▁Communist	-10441
▁140	-10442
▁avoided	-10443
handed	-10444
▁Dalai	-10445
▁plain	-10446
▁risky	-10447
charg	-10448
▁subjects	-10449
▁ED	-10450
▁decor	-10451
▁damages	-10452
▁Federation	-10453
▁Bren	-10454
▁rookie	-10455
▁brutal	-10456
ype	-10457
▁asks	-10458
▁tob	-10459
▁Crist	-10460
▁mud	-10461
▁rif	-10462
▁celebrities	-10463
▁Thai	-10464
▁islands	-10465
▁tar	-10466
▁horses	-10467
▁strategies	-10468
▁voluntary	-10469
▁Seoul	-10470
eli	-10471
▁rolling	-10472
▁math	-10473
▁sporting	-10474
▁sher	-10475
▁Totten	-10476
▁porn	-10477
▁regulator	-10478
▁legitimate	-10479
uzz	-10480
▁pose	-10481
▁sculpt	-10482
▁charter	-10483
▁confron	-10484
▁Montgom	-10485
luding	-10486
OW	-10487
▁participation	-10488
▁Members	-10489
▁Mas	-10490
▁Critics	-10491
▁offences	-10492
▁colleague	-10493
▁smile	-10494
GH	-10495
fund	-10496
▁inher	-10497
inces	-10498
▁bedroom	-10499
▁engineer	-10500
▁appearing	-10501
duction	-10502
▁spur	-10503
▁desc	-10504
▁script	-10505
▁Intelligence	-10506
▁signals	-10507
▁urgent	-10508
▁charging	-10509
▁22-	-10510
store	-10511
▁philosoph	-10512
▁slide	-10513
▁wholes	-10514
▁Employ	-10515
▁sentences	-10516
▁reliable	-10517
▁5-	-10518
ouses	-10519
▁engines	-10520
▁grip	-10521
▁preserve	-10522
evision	-10523
▁hub	-10524
angir	-10525
nan	-10526
▁dish	-10527
▁march	-10528
▁Steel	-10529
▁Fannie	-10530
▁Rafael	-10531
▁190	-10532
▁lad	-10533
▁costly	-10534
▁Reds	-10535
▁sweep	-10536
▁butter	-10537
▁tonnes	-10538
▁businessman	-10539
▁chaos	-10540
▁prompting	-10541
▁toss	-10542
▁Strip	-10543
▁Sgt	-10544
▁Cancer	-10545
▁sacrif	-10546
▁hij	-10547
▁boats	-10548
▁bell	-10549
▁isolated	-10550
▁explosive	-10551
▁Policy	-10552
vation	-10553
▁battles	-10554
▁graph	-10555
▁roots	-10556
▁McDonald	-10557
piece	-10558
▁accusing	-10559
▁luc	-10560
▁Private	-10561
▁dimin	-10562
▁organisations	-10563
▁sole	-10564
▁establishment	-10565
▁Everyone	-10566
▁hill	-10567
but	-10568
▁imper	-10569
▁chart	-10570
▁comed	-10571
▁Palace	-10572
▁Ill	-10573
▁Index	-10574
▁alarm	-10575
▁teens	-10576
▁reception	-10577
▁secondary	-10578
▁pharmaceutical	-10579
▁joy	-10580
imited	-10581
▁Aaron	-10582
▁bacter	-10583
▁haz	-10584
▁undermin	-10585
▁catastrop	-10586
berry	-10587
▁mandate	-10588
▁discussing	-10589
▁Mars	-10590
▁Mae	-10591
elaya	-10592
▁Kerry	-10593
▁Somali	-10594
▁frustration	-10595
▁sty	-10596
▁Banks	-10597
▁Leeds	-10598
▁Convention	-10599
▁Sometimes	-10600
▁Stuart	-10601
▁shake	-10602
▁factories	-10603
▁300,000	-10604
▁Aren	-10605
▁seemingly	-10606
▁Tibetan	-10607
▁poet	-10608
▁Armstrong	-10609
▁infected	-10610
▁97	-10611
▁tobacco	-10612
▁gear	-10613
▁catal	-10614
▁answered	-10615
▁introduction	-10616
▁Merkel	-10617
▁Tsv	-10618
fare	-10619
▁sits	-10620
▁Richardson	-10621
▁Dor	-10622
▁reductions	-10623
▁Pict	-10624
▁Sat	-10625
ishers	-10626
▁waited	-10627
▁engineers	-10628
screen	-10629
▁Ton	-10630
▁hearings	-10631
udes	-10632
▁tears	-10633
▁Vlad	-10634
▁reconciliation	-10635
▁disrupt	-10636
▁manip	-10637
▁refusing	-10638
▁medication	-10639
▁mol	-10640
inated	-10641
▁overt	-10642
▁boosted	-10643
▁hydro	-10644
▁Budd	-10645
▁restored	-10646
▁wildlife	-10647
erto	-10648
▁opener	-10649
▁lod	-10650
▁hug	-10651
▁uncertainties	-10652
itate	-10653
▁centres	-10654
▁2.6	-10655
▁declines	-10656
▁sin	-10657
▁Fat	-10658
▁veto	-10659
▁portra	-10660
isely	-10661
eath	-10662
-200	-10663
▁Cher	-10664
friendly	-10665
▁Tottenham	-10666
▁guarantees	-10667
inary	-10668
▁Cinc	-10669
▁Josh	-10670
▁Fut	-10671
▁excessive	-10672
▁tang	-10673
aus	-10674
TC	-10675
▁fing	-10676
▁developer	-10677
eps	-10678
oli	-10679
omach	-10680
▁examined	-10681
▁Hondur	-10682
▁Gibbs	-10683
▁frame	-10684
▁colour	-10685
▁Bad	-10686
▁bloc	-10687
▁organised	-10688
▁reign	-10689
▁severely	-10690
▁Hind	-10691
▁plum	-10692
▁pa	-10693
-11	-10694
otive	-10695
▁Dream	-10696
▁closest	-10697
▁cheer	-10698
▁Tob	-10699
▁processing	-10700
aria	-10701
Star	-10702
▁bold	-10703
▁consultation	-10704
▁runner	-10705
leg	-10706
theless	-10707
▁bottles	-10708
▁volatile	-10709
▁Exc	-10710
▁meal	-10711
▁Alban	-10712
▁occupied	-10713
ski	-10714
-12	-10715
▁peacek	-10716
.25	-10717
▁inevitable	-10718
▁goalkeeper	-10719
▁50-	-10720
▁Rooney	-10721
▁devoted	-10722
▁Tsvangir	-10723
▁demonstrate	-10724
▁soccer	-10725
wind	-10726
▁buses	-10727
▁pink	-10728
▁Norway	-10729
▁cautious	-10730
▁treating	-10731
▁Conf	-10732
▁motorcy	-10733
▁singles	-10734
▁Pad	-10735
▁workforce	-10736
▁Natural	-10737
▁Clear	-10738
enter	-10739
▁scan	-10740
Bay	-10741
▁inject	-10742
▁Tsvangirai	-10743
▁shield	-10744
innati	-10745
▁bureauc	-10746
uration	-10747
iley	-10748
▁1.0	-10749
▁errors	-10750
▁cub	-10751
▁Spears	-10752
▁Dennis	-10753
▁diamond	-10754
▁examination	-10755
breaking	-10756
▁beneath	-10757
▁jobless	-10758
▁fo	-10759
▁forum	-10760
▁Reform	-10761
▁Hat	-10762
▁cruise	-10763
▁mounting	-10764
▁furniture	-10765
▁Have	-10766
▁transpl	-10767
▁hiding	-10768
▁Cincinnati	-10769
▁Benj	-10770
▁administrative	-10771
tax	-10772
▁shame	-10773
▁25,000	-10774
▁inquest	-10775
▁Bangl	-10776
▁lesson	-10777
▁Dj	-10778
▁Danny	-10779
izer	-10780
▁preventing	-10781
LAN	-10782
▁globe	-10783
▁delighted	-10784
▁starring	-10785
▁depends	-10786
▁tempt	-10787
▁Agr	-10788
▁lined	-10789
▁snap	-10790
▁Notes	-10791
▁handled	-10792
▁Cambridge	-10793
▁notably	-10794
▁obsc	-10795
▁muscle	-10796
▁mate	-10797
▁vit	-10798
▁counties	-10799
▁Castro	-10800
otes	-10801
▁diverse	-10802
▁farms	-10803
inhua	-10804
▁button	-10805
▁exempt	-10806
.50	-10807
cribed	-10808
▁OF	-10809
▁gender	-10810
▁span	-10811
▁evolution	-10812
▁ratio	-10813
▁blew	-10814
▁MD	-10815
▁Sac	-10816
▁Fact	-10817
▁foreigners	-10818
▁spreading	-10819
▁HS	-10820
jud	-10821
▁tracking	-10822
▁98	-10823
▁Idol	-10824
▁Indians	-10825
▁Congo	-10826
▁meets	-10827
▁scream	-10828
▁immune	-10829
yers	-10830
ls	-10831
▁cycl	-10832
mails	-10833
▁commodity	-10834
▁Laura	-10835
▁constantly	-10836
▁shell	-10837
▁Justin	-10838
▁disagre	-10839
▁chocolate	-10840
▁94	-10841
▁Nottingham	-10842
▁fantastic	-10843
▁Marshall	-10844
▁180	-10845
▁Hudson	-10846
▁gallery	-10847
▁restrict	-10848
▁posting	-10849
▁Stein	-10850
earchers	-10851
▁stomach	-10852
▁Would	-10853
▁Almost	-10854
▁examine	-10855
▁Cold	-10856
▁emotion	-10857
opard	-10858
▁Investigators	-10859
▁Bobby	-10860
▁91	-10861
▁Corps	-10862
▁Shah	-10863
▁promotion	-10864
▁Resc	-10865
▁Sin	-10866
▁technique	-10867
▁breakthrough	-10868
vo	-10869
▁Anyone	-10870
▁database	-10871
▁spo	-10872
▁Pu	-10873
▁curb	-10874
▁salaries	-10875
▁hammer	-10876
▁Television	-10877
▁harass	-10878
▁researcher	-10879
▁pride	-10880
▁touched	-10881
▁Climate	-10882
▁fab	-10883
rien	-10884
▁honour	-10885
▁nursing	-10886
▁spiritual	-10887
▁debris	-10888
▁anxiety	-10889
▁proceeds	-10890
▁neighborhoods	-10891
▁hunting	-10892
ranked	-10893
▁Quest	-10894
▁elabor	-10895
▁Austin	-10896
▁15,000	-10897
▁roadside	-10898
teen	-10899
▁bio	-10900
▁Line	-10901
▁referee	-10902
ori	-10903
▁Campaign	-10904
▁pact	-10905
imir	-10906
▁judicial	-10907
▁pitched	-10908
BM	-10909
▁surveyed	-10910
▁Yesterday	-10911
▁09	-10912
▁pays	-10913
▁measured	-10914
▁Ye	-10915
▁convince	-10916
▁frustrated	-10917
▁rear	-10918
▁signature	-10919
▁semif	-10920
▁flav	-10921
▁wet	-10922
▁rhetoric	-10923
▁vary	-10924
▁incorpor	-10925
onduct	-10926
▁thro	-10927
▁intellectual	-10928
▁consistently	-10929
▁Gore	-10930
▁Amb	-10931
▁fighter	-10932
▁capabilities	-10933
▁bipart	-10934
▁optimism	-10935
▁epic	-10936
speed	-10937
oker	-10938
▁Todd	-10939
▁grave	-10940
▁4-	-10941
▁ON	-10942
▁crowded	-10943
▁hurricane	-10944
▁spotlight	-10945
▁Gro	-10946
▁Knight	-10947
▁entrance	-10948
▁connections	-10949
▁strongest	-10950
▁Manuel	-10951
▁Cu	-10952
▁explore	-10953
▁extremists	-10954
▁iPod	-10955
▁intimid	-10956
▁unity	-10957
▁speaks	-10958
▁23-	-10959
▁Reporting	-10960
▁budgets	-10961
ellers	-10962
▁privile	-10963
▁drives	-10964
ushing	-10965
▁reh	-10966
icipal	-10967
▁JPMorgan	-10968
▁departments	-10969
▁fisher	-10970
▁anch	-10971
▁Freedom	-10972
anim	-10973
onder	-10974
▁fet	-10975
▁nick	-10976
▁110	-10977
▁soci	-10978
▁lasted	-10979
▁corporations	-10980
▁toys	-10981
▁Aberde	-10982
sized	-10983
▁Total	-10984
▁touchdowns	-10985
▁Finally	-10986
▁parade	-10987
▁obligations	-10988
▁instrument	-10989
▁Fernando	-10990
▁confirmation	-10991
osex	-10992
ppy	-10993
▁battling	-10994
▁panic	-10995
ullivan	-10996
▁reconst	-10997
▁delegation	-10998
▁Duncan	-10999
giving	-11000
▁diplomat	-11001
▁Relations	-11002
▁ambulance	-11003
▁violated	-11004
dri	-11005
▁deposit	-11006
▁obesity	-11007
▁dancing	-11008
▁Contin	-11009
▁militia	-11010
▁councils	-11011
▁fel	-11012
▁mutual	-11013
▁heating	-11014
▁191	-11015
▁walks	-11016
▁renov	-11017
▁youngest	-11018
leum	-11019
▁modified	-11020
▁kidnapping	-11021
▁fined	-11022
▁NCAA	-11023
▁acquire	-11024
elle	-11025
▁centuries	-11026
▁Hit	-11027
sharing	-11028
▁exploration	-11029
orge	-11030
▁coaching	-11031
▁medals	-11032
▁Honda	-11033
▁genuine	-11034
▁starter	-11035
iped	-11036
▁joke	-11037
▁scenario	-11038
▁vessels	-11039
stage	-11040
▁Fish	-11041
dam	-11042
▁3-1	-11043
aturally	-11044
▁occasionally	-11045
▁tale	-11046
▁Bou	-11047
viously	-11048
aukee	-11049
▁regret	-11050
▁Croat	-11051
▁gifts	-11052
▁availability	-11053
▁residence	-11054
AGO	-11055
▁expend	-11056
▁Scientists	-11057
▁Walter	-11058
ught	-11059
▁flowers	-11060
uten	-11061
▁peers	-11062
▁relating	-11063
▁Buzz	-11064
▁suburban	-11065
▁Mother	-11066
▁tables	-11067
zes	-11068
▁gaining	-11069
▁slowing	-11070
AAP	-11071
▁golden	-11072
▁disclosure	-11073
.30	-11074
▁occasions	-11075
▁decreased	-11076
▁resolved	-11077
▁chamber	-11078
▁Trop	-11079
▁trim	-11080
▁Jesus	-11081
▁fortune	-11082
▁extrad	-11083
▁Emirates	-11084
TO	-11085
▁circle	-11086
▁publishing	-11087
▁CHIC	-11088
.00	-11089
▁assured	-11090
▁cous	-11091
▁easing	-11092
▁theatre	-11093
▁bulk	-11094
▁resur	-11095
▁movements	-11096
▁publisher	-11097
top	-11098
▁twe	-11099
▁kilometers	-11100
gging	-11101
▁Small	-11102
▁admits	-11103
amble	-11104
▁Theat	-11105
▁Vin	-11106
▁wanting	-11107
waukee	-11108
▁bloody	-11109
▁shortage	-11110
▁Clarke	-11111
▁awaiting	-11112
▁Friends	-11113
▁0.6	-11114
▁Capello	-11115
▁grim	-11116
▁twin	-11117
▁priorities	-11118
▁metres	-11119
▁Led	-11120
hit	-11121
▁pressures	-11122
host	-11123
rae	-11124
▁nurse	-11125
▁upgr	-11126
▁enterprise	-11127
▁requirement	-11128
deg	-11129
▁Dig	-11130
▁Buffalo	-11131
▁Charlotte	-11132
stitutes	-11133
▁Islands	-11134
▁Engine	-11135
▁produces	-11136
▁ambitions	-11137
▁instant	-11138
▁sheriff	-11139
▁formerly	-11140
▁teeth	-11141
▁revol	-11142
▁Powell	-11143
▁bot	-11144
bat	-11145
▁Serge	-11146
▁None	-11147
▁commitments	-11148
▁1984	-11149
▁Marines	-11150
▁visual	-11151
▁CHICAGO	-11152
▁Oakland	-11153
▁Belgium	-11154
▁Short	-11155
▁volunteer	-11156
billion	-11157
▁generous	-11158
▁romantic	-11159
egu	-11160
▁clim	-11161
children	-11162
▁proc	-11163
▁championships	-11164
onies	-11165
▁Bail	-11166
▁commodities	-11167
urches	-11168
▁Crow	-11169
mel	-11170
tershire	-11171
▁Ak	-11172
▁lun	-11173
boys	-11174
▁chemicals	-11175
▁Third	-11176
rington	-11177
oved	-11178
▁maintaining	-11179
▁Ful	-11180
▁gig	-11181
mal	-11182
parts	-11183
▁electrical	-11184
▁Winter	-11185
▁violation	-11186
iband	-11187
▁Ethiop	-11188
▁Nazi	-11189
▁Brand	-11190
▁ignore	-11191
▁primaries	-11192
ista	-11193
▁Owen	-11194
▁Derby	-11195
▁retreat	-11196
▁murdered	-11197
sche	-11198
▁uncon	-11199
borough	-11200
▁1930	-11201
▁Building	-11202
▁resource	-11203
▁lucrative	-11204
▁replacing	-11205
▁Garcia	-11206
▁openly	-11207
▁Lebanese	-11208
▁Alf	-11209
▁40-	-11210
▁Hon	-11211
▁Intel	-11212
▁bout	-11213
▁Embassy	-11214
istrates	-11215
▁assassination	-11216
▁bump	-11217
▁presidents	-11218
▁Mess	-11219
▁Bat	-11220
▁Dak	-11221
▁displaced	-11222
▁2.8	-11223
▁fame	-11224
▁conducting	-11225
tail	-11226
▁praise	-11227
▁Sut	-11228
hal	-11229
▁Side	-11230
▁weaker	-11231
▁separat	-11232
wa	-11233
▁Electric	-11234
▁situations	-11235
▁crops	-11236
▁Researchers	-11237
▁HM	-11238
tra	-11239
▁colleges	-11240
▁Leicester	-11241
▁NOT	-11242
▁dominant	-11243
▁Cab	-11244
ternal	-11245
bie	-11246
▁grocer	-11247
▁sleeping	-11248
▁0.7	-11249
enegger	-11250
▁Margaret	-11251
ancies	-11252
▁reviewed	-11253
▁Lauren	-11254
▁pitcher	-11255
▁Seb	-11256
▁declaration	-11257
▁Treat	-11258
▁prest	-11259
▁integrated	-11260
del	-11261
▁deserve	-11262
olk	-11263
▁Kyi	-11264
build	-11265
▁Mobile	-11266
▁mystery	-11267
▁infections	-11268
▁suggestions	-11269
awi	-11270
▁negl	-11271
▁provinces	-11272
▁Kil	-11273
▁Milwaukee	-11274
▁3-0	-11275
▁gradu	-11276
▁Industry	-11277
▁Tes	-11278
mons	-11279
▁Rest	-11280
▁categories	-11281
▁ITV	-11282
▁absent	-11283
▁dispos	-11284
▁encounter	-11285
CH	-11286
▁profitable	-11287
▁Holdings	-11288
gence	-11289
▁Snow	-11290
▁lav	-11291
▁publicity	-11292
▁ranking	-11293
▁endorsed	-11294
▁rental	-11295
▁disclose	-11296
eches	-11297
▁Hass	-11298
▁opera	-11299
▁demonstrators	-11300
▁painted	-11301
▁promoted	-11302
▁courage	-11303
▁valued	-11304
yer	-11305
▁Kal	-11306
▁suits	-11307
▁comparable	-11308
▁supermarket	-11309
rock	-11310
remlin	-11311
▁guer	-11312
idal	-11313
▁erupted	-11314
post	-11315
▁Ath	-11316
▁BEI	-11317
▁topped	-11318
▁registration	-11319
▁Bed	-11320
▁donated	-11321
▁quietly	-11322
▁Memorial	-11323
uz	-11324
▁prisoner	-11325
▁ousted	-11326
iah	-11327
▁Hispanic	-11328
▁OP	-11329
▁Delhi	-11330
▁Schwarzenegger	-11331
CA	-11332
▁matched	-11333
▁subscrib	-11334
▁outdoor	-11335
ahar	-11336
▁refuse	-11337
arded	-11338
▁affecting	-11339
▁horm	-11340
oken	-11341
▁ballots	-11342
▁sidel	-11343
etta	-11344
▁warn	-11345
▁2.0	-11346
bits	-11347
▁Denmark	-11348
▁Arnold	-11349
▁appet	-11350
▁neutral	-11351
▁taxi	-11352
▁Angels	-11353
▁lobbying	-11354
▁circuit	-11355
▁undersc	-11356
▁followers	-11357
▁1986	-11358
▁Favre	-11359
ogs	-11360
▁Ashley	-11361
▁unnecess	-11362
▁Mandelson	-11363
▁Within	-11364
▁dim	-11365
▁Forces	-11366
▁Ronaldo	-11367
▁3.6	-11368
▁Nato	-11369
▁Benjamin	-11370
▁searched	-11371
▁suggestion	-11372
▁pressed	-11373
▁yard	-11374
▁1-1	-11375
▁enjoying	-11376
▁Main	-11377
▁Vladimir	-11378
▁dad	-11379
▁paintings	-11380
▁topic	-11381
▁Portland	-11382
▁PGA	-11383
▁tiss	-11384
▁125	-11385
▁engagement	-11386
▁urge	-11387
▁lawsuits	-11388
▁tips	-11389
▁DC	-11390
hou	-11391
▁opinions	-11392
▁Sel	-11393
▁burgl	-11394
▁compr	-11395
itis	-11396
▁alter	-11397
▁kidney	-11398
▁perpet	-11399
▁foss	-11400
▁crazy	-11401
▁partially	-11402
▁safely	-11403
▁vend	-11404
Space	-11405
unta	-11406
▁fence	-11407
▁obligation	-11408
iverse	-11409
▁Ivan	-11410
▁belt	-11411
▁Manning	-11412
ihad	-11413
▁unemployed	-11414
▁grid	-11415
▁audio	-11416
▁credibility	-11417
▁agricultural	-11418
▁Everton	-11419
iots	-11420
▁sample	-11421
▁Sussex	-11422
▁impressed	-11423
▁holders	-11424
▁slowed	-11425
▁Miliband	-11426
rin	-11427
▁Sure	-11428
▁Amy	-11429
▁amendment	-11430
▁Hull	-11431
▁assumed	-11432
▁Devon	-11433
▁Tribune	-11434
▁patterns	-11435
▁Neb	-11436
▁respected	-11437
ocide	-11438
▁appreciate	-11439
▁apology	-11440
▁unac	-11441
▁Holy	-11442
▁Agric	-11443
▁loaded	-11444
▁wors	-11445
▁Christians	-11446
▁Tamil	-11447
▁Tun	-11448
▁que	-11449
▁inner	-11450
▁executed	-11451
▁Box	-11452
▁Wals	-11453
▁Money	-11454
▁Spurs	-11455
▁surprisingly	-11456
▁1,3	-11457
▁undermine	-11458
▁incentive	-11459
▁Jar	-11460
▁comic	-11461
ighed	-11462
▁deployment	-11463
opular	-11464
apes	-11465
▁ensuring	-11466
▁participating	-11467
▁BMW	-11468
▁Omar	-11469
▁preparation	-11470
▁Arthur	-11471
▁collective	-11472
▁components	-11473
arth	-11474
club	-11475
▁cruel	-11476
▁Sheikh	-11477
arency	-11478
▁Gray	-11479
▁threaten	-11480
▁acceptable	-11481
▁Foster	-11482
▁counterparts	-11483
▁chips	-11484
▁eurozone	-11485
terrorism	-11486
▁evacuated	-11487
▁Ana	-11488
▁bru	-11489
▁menu	-11490
throp	-11491
phis	-11492
▁instruments	-11493
▁Philippines	-11494
ortium	-11495
▁Israelis	-11496
▁Essex	-11497
▁27-	-11498
▁god	-11499
▁hell	-11500
▁Burma	-11501
▁boge	-11502
▁programming	-11503
ftime	-11504
▁pocket	-11505
agic	-11506
▁implications	-11507
▁restricted	-11508
▁premiere	-11509
degree	-11510
▁disputes	-11511
▁hostile	-11512
▁compliance	-11513
▁bron	-11514
▁wrapped	-11515
▁Suu	-11516
▁highlights	-11517
▁tower	-11518
▁supervis	-11519
ripp	-11520
▁Maine	-11521
▁ward	-11522
▁Experts	-11523
▁bubble	-11524
▁stopping	-11525
sky	-11526
▁Colin	-11527
▁designers	-11528
▁lengthy	-11529
▁Saints	-11530
▁branches	-11531
▁halftime	-11532
▁array	-11533
▁cancelled	-11534
▁Jacob	-11535
▁Fall	-11536
▁Asked	-11537
uality	-11538
▁fragile	-11539
sk	-11540
▁1987	-11541
▁Katrina	-11542
▁stero	-11543
▁Wenger	-11544
▁0.0	-11545
atherine	-11546
ci	-11547
▁Schools	-11548
▁NHL	-11549
ethe	-11550
pin	-11551
▁convoy	-11552
▁supporter	-11553
isms	-11554
eepers	-11555
▁screens	-11556
▁Bey	-11557
▁emphasis	-11558
elihood	-11559
▁recalls	-11560
▁determination	-11561
▁HD	-11562
▁Mull	-11563
▁III	-11564
▁6,000	-11565
▁spare	-11566
▁sealed	-11567
▁Lin	-11568
▁responding	-11569
▁Election	-11570
▁automatically	-11571
▁Kath	-11572
▁corp	-11573
▁interpret	-11574
Brien	-11575
▁backs	-11576
▁pursuing	-11577
▁Brady	-11578
▁evil	-11579
▁Hunter	-11580
powered	-11581
▁acknowledge	-11582
▁Palm	-11583
▁Kenn	-11584
▁gases	-11585
▁Malaysia	-11586
▁tu	-11587
▁demonstration	-11588
tech	-11589
utt	-11590
reated	-11591
▁studios	-11592
▁agriculture	-11593
▁CS	-11594
comm	-11595
▁slim	-11596
▁Jeremy	-11597
math	-11598
▁Heathrow	-11599
▁sponsored	-11600
▁stakes	-11601
▁celebrating	-11602
▁oun	-11603
▁Blake	-11604
▁Theater	-11605
▁bears	-11606
▁Rather	-11607
▁outlets	-11608
▁cheese	-11609
lee	-11610
abbing	-11611
▁Fif	-11612
▁micro	-11613
▁basically	-11614
utsche	-11615
▁strongh	-11616
▁divisions	-11617
oria	-11618
▁glad	-11619
▁automatic	-11620
22	-11621
iasm	-11622
ugged	-11623
loaded	-11624
ratic	-11625
▁unchanged	-11626
▁objects	-11627
▁format	-11628
▁Om	-11629
▁160	-11630
▁Sep	-11631
▁Memphis	-11632
▁tribunal	-11633
▁accepting	-11634
▁extending	-11635
▁witnessed	-11636
▁Pap	-11637
endar	-11638
▁tag	-11639
▁Kir	-11640
▁irre	-11641
▁Athens	-11642
▁Please	-11643
▁Roc	-11644
pointer	-11645
▁Angela	-11646
▁3.4	-11647
▁Hann	-11648
▁marry	-11649
▁receiver	-11650
▁raids	-11651
vely	-11652
▁forever	-11653
▁Ki	-11654
▁detectives	-11655
▁Brew	-11656
rimin	-11657
▁formula	-11658
controlled	-11659
kok	-11660
▁IC	-11661
▁flown	-11662
lings	-11663
nesty	-11664
▁Montgomery	-11665
▁diluted	-11666
400	-11667
▁bats	-11668
▁wooden	-11669
▁Dise	-11670
IR	-11671
▁counted	-11672
HA	-11673
▁1982	-11674
ambers	-11675
▁Veter	-11676
▁2,500	-11677
▁cabin	-11678
icism	-11679
▁Ca	-11680
▁Peru	-11681
▁fright	-11682
▁Peterson	-11683
▁Butler	-11684
▁Sid	-11685
▁literally	-11686
▁accidents	-11687
▁lap	-11688
wait	-11689
▁storms	-11690
▁grandmother	-11691
▁Sharif	-11692
▁Colombian	-11693
▁flour	-11694
▁Cape	-11695
▁fundraising	-11696
ommun	-11697
▁Formula	-11698
▁mosque	-11699
▁designs	-11700
bow	-11701
▁Overall	-11702
inity	-11703
▁Bangladesh	-11704
ardari	-11705
▁infant	-11706
▁transit	-11707
▁desp	-11708
dem	-11709
▁Sex	-11710
▁Gat	-11711
▁7-6	-11712
▁slot	-11713
▁insurer	-11714
▁conversations	-11715
idges	-11716
▁Casey	-11717
▁perceived	-11718
▁endang	-11719
▁wrest	-11720
▁abused	-11721
▁MySpace	-11722
▁currencies	-11723
inction	-11724
▁Wallace	-11725
▁withdrew	-11726
▁Phillies	-11727
▁aftermath	-11728
▁Flin	-11729
▁choosing	-11730
author	-11731
▁arranged	-11732
▁vocal	-11733
▁automakers	-11734
erm	-11735
wealth	-11736
▁dining	-11737
▁briefing	-11738
▁PM	-11739
▁cleaning	-11740
▁Jama	-11741
▁tropical	-11742
▁breathing	-11743
▁Armed	-11744
arest	-11745
istered	-11746
▁licence	-11747
enson	-11748
▁Drew	-11749
▁locals	-11750
afe	-11751
▁soared	-11752
▁laboratory	-11753
▁myth	-11754
▁Advis	-11755
drop	-11756
▁defic	-11757
▁repro	-11758
napped	-11759
▁Easter	-11760
▁probation	-11761
▁Coal	-11762
▁Knox	-11763
▁buff	-11764
▁admission	-11765
▁Ric	-11766
▁volumes	-11767
▁Arctic	-11768
uers	-11769
amped	-11770
amework	-11771
▁acquisitions	-11772
▁musicians	-11773
▁Surrey	-11774
ersen	-11775
▁Kremlin	-11776
▁Military	-11777
▁Bangkok	-11778
itated	-11779
▁3-2	-11780
▁hostage	-11781
▁8,000	-11782
▁petrol	-11783
▁Libya	-11784
▁AS	-11785
▁interrogation	-11786
▁eliminated	-11787
▁panels	-11788
▁surged	-11789
▁booked	-11790
▁submit	-11791
▁chol	-11792
▁articles	-11793
▁universal	-11794
▁Cash	-11795
▁speeches	-11796
▁Bosn	-11797
▁disappointment	-11798
hum	-11799
In	-11800
▁jets	-11801
▁addresses	-11802
engu	-11803
▁Ta	-11804
▁bunch	-11805
▁assemb	-11806
▁Alexand	-11807
▁recognised	-11808
▁pronounced	-11809
▁arena	-11810
▁Kl	-11811
acles	-11812
changes	-11813
▁sid	-11814
▁indicates	-11815
ressing	-11816
bridge	-11817
▁diesel	-11818
▁item	-11819
▁mere	-11820
▁phenomen	-11821
▁AR	-11822
▁mamm	-11823
▁Chamber	-11824
▁genocide	-11825
▁tours	-11826
▁Liberty	-11827
▁bipartisan	-11828
▁designated	-11829
▁failures	-11830
around	-11831
▁deriv	-11832
▁Billy	-11833
▁dealer	-11834
▁Dodgers	-11835
▁guerrill	-11836
alez	-11837
▁payroll	-11838
▁turb	-11839
fin	-11840
ali	-11841
ipper	-11842
▁3.2	-11843
▁settlements	-11844
AB	-11845
▁conscious	-11846
▁epid	-11847
▁pursuit	-11848
cessions	-11849
Is	-11850
▁Moon	-11851
▁Deutsche	-11852
dig	-11853
▁smell	-11854
▁Theatre	-11855
▁tremend	-11856
▁adoption	-11857
otti	-11858
▁kiss	-11859
▁meltdown	-11860
▁accomplish	-11861
osh	-11862
▁arrangement	-11863
▁Nep	-11864
▁unanim	-11865
▁distingu	-11866
▁supplement	-11867
▁alien	-11868
▁Sev	-11869
▁sentencing	-11870
▁Greater	-11871
▁Manager	-11872
▁examples	-11873
▁Downing	-11874
▁permit	-11875
▁laptop	-11876
▁Brig	-11877
▁kidnapped	-11878
habi	-11879
▁chancellor	-11880
▁vegetables	-11881
▁26-	-11882
▁redund	-11883
▁hosting	-11884
▁racist	-11885
▁Few	-11886
▁displayed	-11887
▁Monetary	-11888
▁remembered	-11889
▁disappearance	-11890
ateur	-11891
▁nurses	-11892
▁gradually	-11893
aga	-11894
▁punch	-11895
▁Homeland	-11896
▁billionaire	-11897
▁Heart	-11898
▁evident	-11899
iva	-11900
▁rehabil	-11901
erves	-11902
▁classified	-11903
▁willingness	-11904
ouces	-11905
raeus	-11906
▁Half	-11907
▁intr	-11908
▁unaccept	-11909
▁bolster	-11910
▁governors	-11911
▁superior	-11912
▁Hop	-11913
▁assigned	-11914
minded	-11915
card	-11916
▁3.3	-11917
▁gunman	-11918
-13	-11919
▁broadcaster	-11920
▁pod	-11921
▁sacked	-11922
▁subsequently	-11923
TE	-11924
▁dire	-11925
▁advocate	-11926
▁implemented	-11927
▁spy	-11928
▁concessions	-11929
▁Swat	-11930
100	-11931
▁unpopular	-11932
▁Sym	-11933
▁terminal	-11934
▁Geneva	-11935
ationally	-11936
otherap	-11937
▁satisfact	-11938
▁cens	-11939
▁Pav	-11940
insula	-11941
▁Produc	-11942
▁dubbed	-11943
▁indef	-11944
▁inventory	-11945
▁enthusiasm	-11946
▁churches	-11947
▁motivated	-11948
▁Living	-11949
▁Petraeus	-11950
▁Around	-11951
annon	-11952
▁suburb	-11953
75	-11954
▁sew	-11955
▁psychological	-11956
▁aviation	-11957
▁Kay	-11958
rament	-11959
▁horror	-11960
▁embrace	-11961
▁reiter	-11962
▁Lang	-11963
▁trainer	-11964
▁PH	-11965
▁Kle	-11966
ingham	-11967
▁priest	-11968
▁filings	-11969
▁Ug	-11970
arre	-11971
▁creates	-11972
▁scrat	-11973
▁superb	-11974
▁safer	-11975
▁Kam	-11976
▁nowhere	-11977
▁3.8	-11978
▁counterpart	-11979
umble	-11980
count	-11981
▁collaboration	-11982
▁headline	-11983
▁3.7	-11984
▁permits	-11985
scri	-11986
▁Glouces	-11987
▁glo	-11988
▁patch	-11989
▁advisory	-11990
▁0.8	-11991
▁presents	-11992
▁Moss	-11993
ouring	-11994
▁Along	-11995
▁extract	-11996
▁structures	-11997
▁Gaz	-11998
▁seas	-11999
▁stole	-12000
▁incumb	-12001
isd	-12002
▁Na	-12003
encer	-12004
▁drown	-12005
▁successive	-12006
▁Command	-12007
▁episodes	-12008
▁Gonzalez	-12009
▁simpl	-12010
JING	-12011
▁scope	-12012
▁Timothy	-12013
storm	-12014
▁jewel	-12015
▁marine	-12016
▁Dere	-12017
iri	-12018
went	-12019
▁lease	-12020
▁Assistant	-12021
mat	-12022
▁Cohen	-12023
▁artific	-12024
▁voices	-12025
▁railway	-12026
leton	-12027
▁Thank	-12028
▁describing	-12029
▁Iv	-12030
▁Luis	-12031
▁mask	-12032
▁dirty	-12033
▁dreams	-12034
▁Osborne	-12035
iev	-12036
ardi	-12037
▁Based	-12038
oly	-12039
ortions	-12040
▁definition	-12041
fu	-12042
ui	-12043
ignment	-12044
▁View	-12045
▁wis	-12046
itudes	-12047
listed	-12048
▁polar	-12049
airy	-12050
▁Legisl	-12051
▁Reports	-12052
acon	-12053
▁offence	-12054
▁sheets	-12055
▁talented	-12056
▁BEIJING	-12057
▁continent	-12058
▁astronauts	-12059
rants	-12060
▁cab	-12061
▁Mohamed	-12062
▁conceded	-12063
▁peer	-12064
▁anymore	-12065
▁snapped	-12066
▁Shell	-12067
▁Kingdom	-12068
fax	-12069
▁rushing	-12070
▁architecture	-12071
▁external	-12072
▁Doctors	-12073
▁addressing	-12074
88	-12075
▁lend	-12076
▁Cornwall	-12077
▁Expl	-12078
▁fines	-12079
atoes	-12080
▁junta	-12081
▁forgotten	-12082
umper	-12083
▁wholesale	-12084
▁Ib	-12085
▁declare	-12086
▁prevention	-12087
ovich	-12088
▁completion	-12089
eton	-12090
▁Osset	-12091
fly	-12092
▁beliefs	-12093
▁runway	-12094
▁endorsement	-12095
▁Ow	-12096
▁advocacy	-12097
▁Nok	-12098
▁poised	-12099
▁Century	-12100
▁History	-12101
▁Fried	-12102
▁Columbus	-12103
▁contests	-12104
▁450	-12105
▁Oliver	-12106
▁succeeded	-12107
▁genes	-12108
▁rever	-12109
oped	-12110
▁disgr	-12111
▁spaces	-12112
▁expression	-12113
▁dependent	-12114
▁nationally	-12115
ultane	-12116
▁Prin	-12117
▁glam	-12118
▁Sotom	-12119
▁supplier	-12120
▁brows	-12121
▁pensions	-12122
▁lake	-12123
fty	-12124
och	-12125
▁phenomenon	-12126
▁stepping	-12127
▁Emergency	-12128
▁Studies	-12129
▁fails	-12130
▁greeted	-12131
▁Dhabi	-12132
wart	-12133
▁Lisa	-12134
▁hostages	-12135
▁dangers	-12136
▁removal	-12137
▁releases	-12138
▁gentle	-12139
amas	-12140
omo	-12141
roid	-12142
▁deton	-12143
▁missions	-12144
▁Wang	-12145
▁removing	-12146
▁Meg	-12147
manuel	-12148
uri	-12149
▁confidential	-12150
▁satisfied	-12151
▁minim	-12152
▁Wire	-12153
90	-12154
eled	-12155
▁drought	-12156
urer	-12157
▁Ald	-12158
35	-12159
▁Aberdeen	-12160
▁Mack	-12161
▁substitute	-12162
▁mans	-12163
-16	-12164
ifies	-12165
▁tunnel	-12166
▁sounded	-12167
▁Sotomayor	-12168
cr	-12169
▁transparency	-12170
▁3.1	-12171
hyth	-12172
▁Carn	-12173
▁neighbours	-12174
▁Anna	-12175
▁eleg	-12176
▁dign	-12177
▁tender	-12178
▁upgrade	-12179
▁Midlands	-12180
▁organizers	-12181
ERS	-12182
▁jazz	-12183
▁Wazir	-12184
ribe	-12185
olo	-12186
▁discipline	-12187
assion	-12188
▁marking	-12189
iard	-12190
▁inapp	-12191
acht	-12192
▁Alist	-12193
emeter	-12194
▁exchanges	-12195
ainted	-12196
mm	-12197
▁lets	-12198
▁bronze	-12199
▁Person	-12200
▁enrichment	-12201
▁gate	-12202
▁switched	-12203
▁stalled	-12204
▁flames	-12205
▁safegu	-12206
pound	-12207
▁UCLA	-12208
ramento	-12209
etheless	-12210
▁eBay	-12211
▁nod	-12212
▁Diamond	-12213
▁reminder	-12214
▁pandemic	-12215
usting	-12216
▁Whatever	-12217
▁Tar	-12218
▁Ferrari	-12219
▁maj	-12220
▁lighting	-12221
▁Derek	-12222
▁Alistair	-12223
▁Pharm	-12224
▁conflicts	-12225
▁Northwest	-12226
amous	-12227
▁considers	-12228
▁Prim	-12229
▁gangs	-12230
▁750	-12231
oda	-12232
▁cinema	-12233
▁Pas	-12234
▁Hew	-12235
▁Hamid	-12236
▁ingredients	-12237
▁Auto	-12238
▁photographer	-12239
▁ax	-12240
▁musc	-12241
▁1983	-12242
▁clearing	-12243
▁steal	-12244
▁accounted	-12245
▁Miche	-12246
▁Rat	-12247
▁sne	-12248
▁unacceptable	-12249
asted	-12250
rik	-12251
▁gloom	-12252
▁Posted	-12253
▁refund	-12254
▁battered	-12255
▁plummet	-12256
folk	-12257
▁150,000	-12258
▁inspectors	-12259
▁Article	-12260
▁Trip	-12261
▁seal	-12262
elligent	-12263
▁listing	-12264
▁McA	-12265
rov	-12266
erable	-12267
iances	-12268
licit	-12269
▁minus	-12270
▁Mut	-12271
▁observed	-12272
▁inquiries	-12273
▁bidding	-12274
▁7-	-12275
▁Calder	-12276
▁checking	-12277
▁unbeat	-12278
▁Circuit	-12279
▁lean	-12280
▁topp	-12281
▁Besides	-12282
▁equipped	-12283
▁compelling	-12284
▁elaborate	-12285
▁hearts	-12286
▁Airbus	-12287
▁greatly	-12288
▁struggles	-12289
▁toy	-12290
▁hailed	-12291
▁gal	-12292
stop	-12293
▁tanks	-12294
ika	-12295
▁mart	-12296
▁corrupt	-12297
▁Strauss	-12298
hard	-12299
▁tragic	-12300
▁Clemens	-12301
▁exile	-12302
▁credited	-12303
▁prolong	-12304
▁Walsh	-12305
ple	-12306
▁testify	-12307
▁barred	-12308
▁Village	-12309
▁FRAN	-12310
▁recognise	-12311
▁Tri	-12312
▁Swan	-12313
will	-12314
▁Mason	-12315
▁ts	-12316
▁Bolton	-12317
▁trump	-12318
▁seasonal	-12319
▁BNP	-12320
itement	-12321
▁Gibson	-12322
▁homeland	-12323
▁Could	-12324
▁ET	-12325
▁absolute	-12326
▁Hilton	-12327
▁populations	-12328
▁Nokia	-12329
size	-12330
▁gren	-12331
isting	-12332
▁Sullivan	-12333
▁drum	-12334
▁confusion	-12335
▁teammates	-12336
▁Si	-12337
▁calendar	-12338
▁charities	-12339
▁floods	-12340
▁routinely	-12341
ienna	-12342
44	-12343
▁everyday	-12344
icyc	-12345
▁commissioned	-12346
▁runners	-12347
inating	-12348
▁Dame	-12349
▁Maur	-12350
▁thri	-12351
berman	-12352
▁reviewing	-12353
▁demol	-12354
▁Dublin	-12355
▁sacrifice	-12356
▁HSBC	-12357
▁Retail	-12358
▁Danish	-12359
Ne	-12360
▁USC	-12361
igate	-12362
▁Cambod	-12363
▁jacket	-12364
▁excluding	-12365
▁jurors	-12366
▁Dakota	-12367
▁processes	-12368
▁enemies	-12369
▁contractor	-12370
▁Vent	-12371
▁root	-12372
▁youths	-12373
▁jurisd	-12374
▁Madonna	-12375
▁counting	-12376
court	-12377
▁overc	-12378
▁Housing	-12379
enz	-12380
▁deliberately	-12381
▁strang	-12382
ocaust	-12383
▁radar	-12384
▁Joint	-12385
▁tenure	-12386
▁Ep	-12387
irez	-12388
▁Reed	-12389
▁spray	-12390
▁firmly	-12391
▁phrase	-12392
▁editorial	-12393
▁poorly	-12394
▁bombers	-12395
▁fer	-12396
▁Companies	-12397
▁integration	-12398
▁immigrant	-12399
▁Sacramento	-12400
uity	-12401
▁skill	-12402
▁ethics	-12403
▁Against	-12404
▁wondering	-12405
▁Rah	-12406
▁Ry	-12407
▁Mitt	-12408
▁debates	-12409
▁dragged	-12410
▁Mohammad	-12411
ser	-12412
▁Slam	-12413
school	-12414
print	-12415
asm	-12416
▁agg	-12417
▁Montana	-12418
▁subscri	-12419
isure	-12420
▁attendance	-12421
▁consent	-12422
▁surveys	-12423
▁approaching	-12424
illo	-12425
har	-12426
▁sorts	-12427
▁comply	-12428
▁moder	-12429
▁Movement	-12430
erts	-12431
ippers	-12432
dan	-12433
-14	-12434
▁Krist	-12435
▁refusal	-12436
▁contrad	-12437
▁Athlet	-12438
iscovery	-12439
asive	-12440
▁Plus	-12441
▁Russians	-12442
▁naval	-12443
▁wounding	-12444
▁fabric	-12445
▁gambling	-12446
▁Rosen	-12447
▁trafficking	-12448
▁bands	-12449
▁Merced	-12450
▁priced	-12451
ogg	-12452
▁defer	-12453
▁Potter	-12454
zer	-12455
nsic	-12456
▁Annual	-12457
▁inspector	-12458
▁Place	-12459
▁AD	-12460
▁filling	-12461
▁leather	-12462
▁magnitude	-12463
▁Bailey	-12464
▁inspiration	-12465
rawling	-12466
▁Prior	-12467
▁Bishop	-12468
▁FSA	-12469
▁realised	-12470
▁abst	-12471
▁garage	-12472
▁1-	-12473
▁plug	-12474
▁northeast	-12475
▁silent	-12476
▁rockets	-12477
▁deficits	-12478
▁1,200	-12479
▁FD	-12480
▁Paterson	-12481
▁offerings	-12482
dering	-12483
ENT	-12484
▁tech	-12485
achers	-12486
▁integrity	-12487
ALL	-12488
▁revive	-12489
▁turnout	-12490
▁1985	-12491
▁controlling	-12492
▁separated	-12493
▁2013	-12494
▁attributed	-12495
uda	-12496
▁physically	-12497
▁dawn	-12498
▁midfield	-12499
▁intend	-12500
▁embry	-12501
▁resemb	-12502
▁Castle	-12503
▁dent	-12504
▁haul	-12505
▁withdrawn	-12506
lav	-12507
▁placing	-12508
aments	-12509
opez	-12510
▁rated	-12511
▁pole	-12512
bour	-12513
▁Morning	-12514
▁approaches	-12515
▁Karen	-12516
▁adequate	-12517
▁nightclub	-12518
▁alternatives	-12519
▁Golf	-12520
▁invitation	-12521
leep	-12522
▁Diana	-12523
▁cattle	-12524
ancers	-12525
▁confrontation	-12526
▁careers	-12527
▁orange	-12528
▁premiums	-12529
▁inspection	-12530
▁occasional	-12531
istle	-12532
ORT	-12533
vili	-12534
▁0-0	-12535
▁magic	-12536
drome	-12537
▁woes	-12538
▁intensive	-12539
▁unsuccess	-12540
▁PAR	-12541
▁Torres	-12542
▁flexible	-12543
▁institutional	-12544
AI	-12545
▁Eagles	-12546
▁unhappy	-12547
prom	-12548
▁Temp	-12549
▁devastated	-12550
▁liv	-12551
inted	-12552
▁naturally	-12553
▁Waziristan	-12554
▁physician	-12555
16	-12556
▁Criminal	-12557
▁stealing	-12558
▁defendant	-12559
▁collecting	-12560
▁McM	-12561
▁Comment	-12562
aky	-12563
▁substantially	-12564
▁aspir	-12565
▁Log	-12566
▁Sha	-12567
▁eleph	-12568
▁precisely	-12569
▁exceptional	-12570
aksin	-12571
▁landl	-12572
▁Cour	-12573
▁Classic	-12574
orse	-12575
▁simultane	-12576
▁reflecting	-12577
entials	-12578
▁sisters	-12579
▁Sunder	-12580
▁secular	-12581
▁mandatory	-12582
rard	-12583
adequ	-12584
▁Puerto	-12585
▁habits	-12586
▁Similar	-12587
▁justify	-12588
▁Kr	-12589
▁1,0	-12590
▁Cable	-12591
▁utter	-12592
▁realise	-12593
▁dose	-12594
▁Baby	-12595
▁description	-12596
▁explaining	-12597
▁Wel	-12598
orest	-12599
▁Review	-12600
▁Franklin	-12601
▁controll	-12602
▁profound	-12603
▁28-	-12604
identified	-12605
▁conting	-12606
▁Residents	-12607
▁Norman	-12608
▁municipal	-12609
itr	-12610
▁Rw	-12611
▁creditors	-12612
▁altogether	-12613
cker	-12614
migr	-12615
▁8-	-12616
writer	-12617
▁hardware	-12618
▁worn	-12619
▁ug	-12620
▁Ches	-12621
▁Rivers	-12622
▁bathroom	-12623
▁unnecessary	-12624
▁Sheff	-12625
ania	-12626
ronom	-12627
▁riders	-12628
▁Rescue	-12629
--------	-12630
▁harvest	-12631
▁Ve	-12632
▁parked	-12633
▁chairs	-12634
riages	-12635
▁fingers	-12636
▁travelled	-12637
▁les	-12638
▁criteria	-12639
▁Ext	-12640
▁Nicholas	-12641
▁Gabri	-12642
▁Secret	-12643
▁Cai	-12644
efficient	-12645
▁insult	-12646
▁affects	-12647
▁blocking	-12648
▁weakened	-12649
▁Jav	-12650
▁cro	-12651
toff	-12652
▁Costa	-12653
▁certific	-12654
▁framework	-12655
▁lasting	-12656
▁Knicks	-12657
▁Dodd	-12658
▁hamp	-12659
▁unle	-12660
owski	-12661
▁Indianapolis	-12662
▁leth	-12663
▁Samuel	-12664
▁shootings	-12665
eties	-12666
▁ECB	-12667
▁sank	-12668
▁1,6	-12669
after	-12670
hl	-12671
▁employs	-12672
obb	-12673
▁naked	-12674
▁acid	-12675
▁gene	-12676
▁grab	-12677
▁propag	-12678
▁chains	-12679
▁bacteria	-12680
▁shy	-12681
▁aspect	-12682
▁viable	-12683
herent	-12684
▁Kur	-12685
▁Ern	-12686
▁1981	-12687
▁interpre	-12688
▁rallies	-12689
▁Medicaid	-12690
FO	-12691
....	-12692
▁Depression	-12693
▁barrier	-12694
▁Harper	-12695
▁Bi	-12696
▁1967	-12697
▁Sunderland	-12698
asa	-12699
cost	-12700
▁Alz	-12701
▁Pic	-12702
▁Durham	-12703
▁blacks	-12704
▁lowered	-12705
▁murders	-12706
▁2.9	-12707
▁premature	-12708
▁strategist	-12709
earns	-12710
▁authen	-12711
▁postponed	-12712
phones	-12713
rating	-12714
▁antib	-12715
▁materially	-12716
owder	-12717
▁valley	-12718
▁confer	-12719
▁halted	-12720
▁diagnosis	-12721
▁Bever	-12722
odox	-12723
amine	-12724
anne	-12725
ranean	-12726
▁Sudanese	-12727
▁notorious	-12728
▁viewing	-12729
▁hospitalized	-12730
▁mainland	-12731
▁aggressively	-12732
▁breakdown	-12733
▁respondents	-12734
▁replay	-12735
▁engaging	-12736
▁Ramirez	-12737
▁tackling	-12738
▁Start	-12739
▁excuse	-12740
▁consp	-12741
▁Banking	-12742
▁actively	-12743
▁swap	-12744
UT	-12745
▁hardest	-12746
▁advertis	-12747
▁Reading	-12748
zza	-12749
▁benefited	-12750
ews	-12751
▁cleric	-12752
▁tune	-12753
▁Belgian	-12754
▁Muham	-12755
▁pleasure	-12756
▁AB	-12757
▁GE	-12758
aste	-12759
▁Cos	-12760
▁indefin	-12761
▁entert	-12762
▁Point	-12763
▁accessible	-12764
▁Stern	-12765
ecting	-12766
▁Bennett	-12767
▁stripped	-12768
▁Chev	-12769
▁sooner	-12770
▁injection	-12771
▁fantasy	-12772
▁mounted	-12773
▁earmark	-12774
▁councill	-12775
▁ber	-12776
▁load	-12777
▁divide	-12778
▁Cut	-12779
▁Letter	-12780
dick	-12781
▁Nine	-12782
▁ought	-12783
▁contributing	-12784
▁immin	-12785
▁youngsters	-12786
seat	-12787
▁doubles	-12788
inos	-12789
▁Cass	-12790
▁bones	-12791
▁transformed	-12792
▁humanity	-12793
hander	-12794
▁rational	-12795
▁Band	-12796
▁compare	-12797
▁outlined	-12798
NC	-12799
▁Brandon	-12800
▁Madison	-12801
▁appetite	-12802
▁courtroom	-12803
▁Prevention	-12804
▁Brent	-12805
▁Adrian	-12806
▁gau	-12807
▁Basra	-12808
▁fossil	-12809
jo	-12810
▁leaf	-12811
▁incredible	-12812
▁Bird	-12813
▁torch	-12814
uffed	-12815
▁steam	-12816
unami	-12817
▁shortages	-12818
hist	-12819
▁squeeze	-12820
▁Nixon	-12821
▁5.5	-12822
▁bearing	-12823
▁decisive	-12824
ulent	-12825
▁ware	-12826
▁Father	-12827
▁educated	-12828
▁Guy	-12829
▁conj	-12830
▁1976	-12831
▁explicit	-12832
▁component	-12833
▁bosses	-12834
▁classroom	-12835
▁financially	-12836
-17	-12837
▁intrig	-12838
▁biz	-12839
▁Left	-12840
▁Storm	-12841
▁Bright	-12842
occ	-12843
▁Montreal	-12844
▁spectrum	-12845
▁Alger	-12846
auer	-12847
azed	-12848
▁reminded	-12849
▁Richards	-12850
14	-12851
▁Johnny	-12852
▁Data	-12853
▁Mall	-12854
▁pork	-12855
▁Thanksgiving	-12856
▁performers	-12857
▁manif	-12858
ittees	-12859
▁southwest	-12860
inees	-12861
▁consortium	-12862
▁Soon	-12863
oft	-12864
▁Bent	-12865
▁poorest	-12866
▁Mov	-12867
▁Make	-12868
▁Mercedes	-12869
▁enhanced	-12870
▁Batt	-12871
▁Suff	-12872
▁flooded	-12873
▁distant	-12874
▁Cardinals	-12875
▁Fein	-12876
▁parall	-12877
▁McLaren	-12878
▁desperately	-12879
PP	-12880
▁yields	-12881
▁foster	-12882
▁hunger	-12883
anol	-12884
▁worrying	-12885
▁negotiated	-12886
arett	-12887
▁fuels	-12888
▁palace	-12889
▁Sheffield	-12890
▁Spencer	-12891
uese	-12892
story	-12893
▁clever	-12894
itte	-12895
▁Johan	-12896
▁relay	-12897
▁securing	-12898
▁Alzheimer	-12899
▁southeast	-12900
▁101	-12901
kinson	-12902
▁exists	-12903
▁Centers	-12904
▁weighed	-12905
▁Rain	-12906
enza	-12907
▁yuan	-12908
▁Kuwait	-12909
▁tremendous	-12910
▁Agriculture	-12911
ideo	-12912
gov	-12913
ige	-12914
▁Harrison	-12915
▁Blackburn	-12916
▁displays	-12917
▁Jeffrey	-12918
▁postseason	-12919
▁Using	-12920
▁Griffin	-12921
▁Martine	-12922
▁Lieberman	-12923
▁literature	-12924
▁Princess	-12925
▁Holocaust	-12926
▁pedest	-12927
▁foreclosures	-12928
oons	-12929
▁Kash	-12930
▁Certain	-12931
▁climbing	-12932
▁beds	-12933
etown	-12934
▁Late	-12935
-15	-12936
ulty	-12937
▁Stars	-12938
▁Nepal	-12939
running	-12940
▁Nothing	-12941
▁Less	-12942
▁inadequ	-12943
▁1968	-12944
▁homosex	-12945
▁boycott	-12946
▁Ott	-12947
▁IBM	-12948
▁uncomfort	-12949
▁passport	-12950
Maliki	-12951
▁ferry	-12952
lay	-12953
▁tissue	-12954
▁Lopez	-12955
▁Roth	-12956
growing	-12957
utenant	-12958
▁maintains	-12959
▁Portuguese	-12960
The	-12961
▁recommendation	-12962
▁lovely	-12963
▁Too	-12964
▁wary	-12965
▁Lloyd	-12966
▁TS	-12967
ominated	-12968
News	-12969
▁Colon	-12970
▁barriers	-12971
▁slower	-12972
▁chapter	-12973
▁instructions	-12974
▁Sadr	-12975
▁visa	-12976
▁motorists	-12977
▁Disease	-12978
yon	-12979
▁Cubs	-12980
▁Iron	-12981
▁fold	-12982
▁contracted	-12983
▁Francis	-12984
▁Dri	-12985
▁carpet	-12986
▁Beh	-12987
ommunications	-12988
agne	-12989
vals	-12990
▁salmon	-12991
▁Norfolk	-12992
eyer	-12993
▁discour	-12994
▁sponsor	-12995
▁Commonwealth	-12996
▁Master	-12997
▁reveals	-12998
anguage	-12999
33	-13000
▁draws	-13001
▁grey	-13002
▁km	-13003
▁contacts	-13004
igen	-13005
▁wisdom	-13006
▁Peters	-13007
.75	-13008
▁Gard	-13009
weg	-13010
▁Markets	-13011
▁Geoff	-13012
▁incomes	-13013
▁steadily	-13014
19	-13015
▁Thaksin	-13016
ucker	-13017
▁shifted	-13018
▁holy	-13019
spons	-13020
▁Roddick	-13021
▁responses	-13022
chair	-13023
▁Wars	-13024
▁Southeast	-13025
funded	-13026
▁lifting	-13027
▁Survey	-13028
II	-13029
▁Full	-13030
▁afterwards	-13031
▁7,000	-13032
▁opposing	-13033
oid	-13034
▁Mao	-13035
▁objective	-13036
▁cautioned	-13037
▁flexibility	-13038
▁folk	-13039
▁Between	-13040
▁betting	-13041
gments	-13042
▁donor	-13043
▁insight	-13044
▁Rachel	-13045
▁rocks	-13046
▁sore	-13047
emetery	-13048
▁Discovery	-13049
▁apartments	-13050
▁Rogers	-13051
▁internationally	-13052
▁leverage	-13053
▁insisting	-13054
▁Doug	-13055
stri	-13056
▁balanced	-13057
▁jeopard	-13058
ateful	-13059
▁academy	-13060
rose	-13061
▁hazard	-13062
Ar	-13063
▁sweat	-13064
▁surpass	-13065
▁Ele	-13066
▁Fiat	-13067
▁suitable	-13068
▁Nebr	-13069
agging	-13070
▁birdie	-13071
▁aston	-13072
▁corporation	-13073
▁Chan	-13074
▁excitement	-13075
▁nickn	-13076
▁surplus	-13077
▁governance	-13078
▁tally	-13079
▁philosophy	-13080
▁abuses	-13081
▁physicians	-13082
only	-13083
▁convinc	-13084
▁Vienna	-13085
▁gaming	-13086
AV	-13087
ovan	-13088
nity	-13089
▁surviving	-13090
egoti	-13091
▁anxious	-13092
▁1972	-13093
▁beaches	-13094
▁owed	-13095
17	-13096
▁Phel	-13097
▁OPEC	-13098
▁dumped	-13099
▁searches	-13100
▁purchasing	-13101
▁recruitment	-13102
▁MI	-13103
▁pilgr	-13104
▁encl	-13105
▁coordinator	-13106
▁SE	-13107
▁boot	-13108
▁preca	-13109
▁Bradley	-13110
▁Carroll	-13111
best	-13112
▁batting	-13113
▁allowance	-13114
ouds	-13115
▁Conc	-13116
abling	-13117
▁Weather	-13118
▁undergo	-13119
▁Design	-13120
▁1975	-13121
▁contamin	-13122
▁realistic	-13123
▁Schum	-13124
▁giants	-13125
▁bids	-13126
▁Ka	-13127
▁labels	-13128
▁util	-13129
onso	-13130
▁exped	-13131
oga	-13132
sl	-13133
▁facil	-13134
▁unbeaten	-13135
▁rankings	-13136
▁Djok	-13137
▁Action	-13138
▁Highway	-13139
▁constituency	-13140
▁strained	-13141
▁TD	-13142
▁Qatar	-13143
▁indicted	-13144
▁trademark	-13145
with	-13146
▁anonymous	-13147
anchez	-13148
▁chiefs	-13149
▁Heritage	-13150
ishops	-13151
▁slo	-13152
▁edged	-13153
▁60,000	-13154
▁depri	-13155
▁embarrassing	-13156
▁ceiling	-13157
▁jumping	-13158
▁Lords	-13159
▁releasing	-13160
▁trash	-13161
▁Delaware	-13162
▁arbit	-13163
▁nightm	-13164
▁farming	-13165
▁Forum	-13166
▁Prix	-13167
▁Pant	-13168
grad	-13169
▁Magic	-13170
▁releg	-13171
▁Flight	-13172
▁acceptance	-13173
anie	-13174
▁commonly	-13175
▁Carr	-13176
▁Deal	-13177
▁Fame	-13178
▁Nebraska	-13179
▁aging	-13180
▁copper	-13181
▁Boliv	-13182
▁Set	-13183
▁Blues	-13184
▁loves	-13185
▁completing	-13186
acker	-13187
▁Pete	-13188
DAD	-13189
▁Ga	-13190
▁reader	-13191
▁Talk	-13192
cap	-13193
▁Enterprise	-13194
▁Venezuelan	-13195
moon	-13196
▁Mol	-13197
▁sib	-13198
▁trophy	-13199
▁HBOS	-13200
▁meaningful	-13201
▁Emp	-13202
▁iconic	-13203
otherapy	-13204
▁rhyth	-13205
▁Djokovic	-13206
▁dirt	-13207
atis	-13208
▁radiation	-13209
ivic	-13210
▁Tesco	-13211
▁Cowboys	-13212
▁oxy	-13213
▁dynamic	-13214
axy	-13215
ailing	-13216
world	-13217
▁cyber	-13218
▁patri	-13219
erie	-13220
▁wrap	-13221
▁magazines	-13222
▁frank	-13223
▁heels	-13224
▁accum	-13225
▁navy	-13226
▁transmission	-13227
▁Steph	-13228
lon	-13229
▁Cav	-13230
▁Rush	-13231
ifford	-13232
PR	-13233
▁6.5	-13234
▁institute	-13235
odge	-13236
▁Sanchez	-13237
▁exclusively	-13238
▁achievements	-13239
▁handing	-13240
▁Celtics	-13241
▁assaulted	-13242
▁Sign	-13243
▁replic	-13244
▁spite	-13245
▁fiction	-13246
▁sectarian	-13247
▁backup	-13248
▁spends	-13249
▁balloon	-13250
▁Melbourne	-13251
▁persuaded	-13252
mph	-13253
erez	-13254
kei	-13255
arettes	-13256
▁litigation	-13257
olan	-13258
▁precious	-13259
▁Shel	-13260
▁scared	-13261
▁perception	-13262
▁subscribers	-13263
aton	-13264
▁adventure	-13265
bedroom	-13266
bi	-13267
doing	-13268
▁Mills	-13269
▁theaters	-13270
▁airpl	-13271
▁BAG	-13272
▁ling	-13273
▁endangered	-13274
▁nominees	-13275
▁transplant	-13276
▁minimal	-13277
▁stark	-13278
▁overturned	-13279
▁McCl	-13280
▁prisons	-13281
▁RAF	-13282
▁Hunt	-13283
▁Hugo	-13284
ashire	-13285
▁trace	-13286
president	-13287
▁Munich	-13288
▁audit	-13289
▁sellers	-13290
▁jam	-13291
▁diversity	-13292
▁averaged	-13293
arming	-13294
▁voiced	-13295
▁Death	-13296
even	-13297
▁Britons	-13298
▁helpful	-13299
▁Alt	-13300
▁recruiting	-13301
▁Nav	-13302
▁boosting	-13303
▁Moroc	-13304
▁confused	-13305
▁imminent	-13306
▁productivity	-13307
▁matching	-13308
adr	-13309
pher	-13310
▁Mediter	-13311
▁leaked	-13312
▁Bark	-13313
▁violating	-13314
▁Gram	-13315
tis	-13316
.95	-13317
▁stiff	-13318
▁Lear	-13319
▁Hoff	-13320
13	-13321
▁intentions	-13322
▁Ecu	-13323
▁preserv	-13324
attled	-13325
▁Ellis	-13326
itionally	-13327
▁calculated	-13328
▁concerning	-13329
▁intelligent	-13330
▁Aer	-13331
▁receives	-13332
asse	-13333
▁legendary	-13334
▁artistic	-13335
▁inappropriate	-13336
▁Barnes	-13337
▁Ru	-13338
▁chase	-13339
▁rivers	-13340
wy	-13341
▁hook	-13342
▁Online	-13343
▁prayer	-13344
▁Disc	-13345
opes	-13346
▁meg	-13347
▁orph	-13348
▁oxygen	-13349
▁avoiding	-13350
▁Nikkei	-13351
▁Aston	-13352
▁Lower	-13353
▁televised	-13354
aco	-13355
▁Mul	-13356
▁fraction	-13357
▁Political	-13358
▁prestigious	-13359
▁recre	-13360
▁dressing	-13361
▁Traff	-13362
▁feeding	-13363
▁bizarre	-13364
▁forb	-13365
ugee	-13366
▁fever	-13367
▁Hut	-13368
▁platforms	-13369
▁Da	-13370
▁favored	-13371
▁nominations	-13372
▁AG	-13373
▁flags	-13374
▁reconstruction	-13375
▁rib	-13376
isse	-13377
▁venues	-13378
▁Muhammad	-13379
▁portrait	-13380
▁ESP	-13381
▁commem	-13382
▁Holmes	-13383
OUR	-13384
spoken	-13385
▁Mousavi	-13386
▁seeds	-13387
▁Son	-13388
itably	-13389
▁coroner	-13390
▁Citi	-13391
▁solely	-13392
▁CITY	-13393
▁manages	-13394
▁PS	-13395
quir	-13396
▁Cho	-13397
▁pile	-13398
▁spokesperson	-13399
▁BT	-13400
aman	-13401
esto	-13402
▁Cox	-13403
insured	-13404
▁toilet	-13405
sud	-13406
▁Nobody	-13407
▁outright	-13408
erling	-13409
beit	-13410
ulum	-13411
▁poured	-13412
eness	-13413
iffe	-13414
▁Sciences	-13415
▁170	-13416
laughter	-13417
▁dug	-13418
▁Mediterranean	-13419
▁BAGH	-13420
ritz	-13421
ante	-13422
▁Leaders	-13423
▁reinfor	-13424
▁bicyc	-13425
esterol	-13426
HP	-13427
▁Martinez	-13428
▁Osama	-13429
▁slugg	-13430
▁donation	-13431
▁Herald	-13432
▁Darren	-13433
▁differently	-13434
▁ailing	-13435
▁understands	-13436
▁BAGHDAD	-13437
sm	-13438
▁Wade	-13439
▁Mend	-13440
▁Stearns	-13441
roper	-13442
▁Glen	-13443
vet	-13444
▁Wigan	-13445
▁CM	-13446
ylum	-13447
▁Summer	-13448
▁rede	-13449
▁Globe	-13450
▁Ossetia	-13451
kward	-13452
▁Quinn	-13453
▁Lancashire	-13454
tegr	-13455
oum	-13456
▁memoir	-13457
entry	-13458
▁Jefferson	-13459
▁pap	-13460
▁Berks	-13461
▁advances	-13462
▁celebrations	-13463
▁updates	-13464
▁biological	-13465
▁neighbouring	-13466
▁impair	-13467
▁Afghans	-13468
▁Honduras	-13469
nal	-13470
izza	-13471
▁annoy	-13472
▁myster	-13473
▁cam	-13474
▁Gran	-13475
▁concerts	-13476
▁abol	-13477
▁Opera	-13478
▁Viol	-13479
▁unnamed	-13480
quis	-13481
aired	-13482
issance	-13483
▁Spitzer	-13484
▁Province	-13485
acious	-13486
▁landsl	-13487
▁incredibly	-13488
rot	-13489
▁Shaw	-13490
▁mac	-13491
▁Moreover	-13492
Pr	-13493
▁Dmit	-13494
▁replied	-13495
▁Fig	-13496
acent	-13497
▁aggrav	-13498
▁MTV	-13499
▁forests	-13500
▁unusually	-13501
▁universe	-13502
▁medi	-13503
▁borough	-13504
▁credentials	-13505
▁complaining	-13506
▁marathon	-13507
▁Haitian	-13508
▁imported	-13509
▁disruption	-13510
▁puzz	-13511
▁mall	-13512
▁mines	-13513
77	-13514
▁credible	-13515
▁manslaughter	-13516
▁heroin	-13517
▁Kand	-13518
▁Saint	-13519
▁1978	-13520
▁summ	-13521
▁Rut	-13522
▁Smart	-13523
▁alike	-13524
▁Tracy	-13525
▁scare	-13526
▁wishes	-13527
▁Regional	-13528
▁recycling	-13529
▁disagree	-13530
risk	-13531
▁implementation	-13532
cover	-13533
hedral	-13534
▁disast	-13535
▁om	-13536
▁Christie	-13537
▁1974	-13538
▁hills	-13539
▁riots	-13540
kick	-13541
▁Wine	-13542
▁Sharp	-13543
▁congest	-13544
▁ridiculous	-13545
▁capped	-13546
▁Fulham	-13547
▁Argentine	-13548
itime	-13549
▁indicating	-13550
▁Records	-13551
▁Phelps	-13552
▁freshman	-13553
▁2-2	-13554
▁Capt	-13555
▁Od	-13556
obe	-13557
aho	-13558
▁Mans	-13559
▁tumbled	-13560
▁sections	-13561
▁ly	-13562
▁repairs	-13563
▁adap	-13564
▁Piet	-13565
▁Cairo	-13566
▁Sale	-13567
istical	-13568
▁permitted	-13569
▁Industrial	-13570
east	-13571
▁Karl	-13572
▁orbit	-13573
rection	-13574
▁literary	-13575
▁unidentified	-13576
OD	-13577
word	-13578
▁ultra	-13579
▁Brooks	-13580
▁cigarettes	-13581
▁rehe	-13582
▁entrepreneur	-13583
▁Craw	-13584
▁casino	-13585
▁publishers	-13586
kar	-13587
▁doses	-13588
▁Nashville	-13589
▁60-	-13590
andals	-13591
▁Born	-13592
▁Resp	-13593
▁focuses	-13594
▁Cand	-13595
▁rumors	-13596
▁DU	-13597
▁Wool	-13598
▁shifting	-13599
▁grace	-13600
▁sympathy	-13601
▁seiz	-13602
▁stranded	-13603
24	-13604
▁rans	-13605
▁Chall	-13606
▁Leno	-13607
▁subway	-13608
▁slashed	-13609
▁7-5	-13610
▁terrif	-13611
▁awkward	-13612
▁communicate	-13613
▁fares	-13614
▁Resources	-13615
▁bargain	-13616
▁hugely	-13617
▁introducing	-13618
▁OS	-13619
▁abduct	-13620
▁shocking	-13621
▁hometown	-13622
▁murdering	-13623
▁conversion	-13624
▁revealing	-13625
▁Julie	-13626
alion	-13627
▁timet	-13628
▁lawmaker	-13629
▁Pengu	-13630
▁Nico	-13631
▁contempl	-13632
▁policing	-13633
▁McCh	-13634
generation	-13635
▁Kazakh	-13636
▁cousin	-13637
▁Beth	-13638
▁liver	-13639
itively	-13640
▁parole	-13641
omy	-13642
▁400,000	-13643
26	-13644
▁Lan	-13645
▁Niss	-13646
▁concentrate	-13647
▁Nigerian	-13648
▁clinics	-13649
▁tense	-13650
▁Gerrard	-13651
writing	-13652
▁grandfather	-13653
addy	-13654
▁commentary	-13655
spe	-13656
▁addiction	-13657
▁plag	-13658
▁bother	-13659
▁flee	-13660
▁Randy	-13661
ARC	-13662
▁founding	-13663
▁whenever	-13664
▁Kib	-13665
▁wrist	-13666
▁concentration	-13667
▁Renault	-13668
▁Salt	-13669
▁Baseball	-13670
▁effectiveness	-13671
forest	-13672
amount	-13673
▁blogs	-13674
▁embark	-13675
alid	-13676
taking	-13677
▁Being	-13678
▁globally	-13679
▁trades	-13680
▁reaches	-13681
core	-13682
▁whites	-13683
▁improper	-13684
▁loyalty	-13685
ributes	-13686
▁roster	-13687
▁Jenkins	-13688
▁deserves	-13689
▁Southwest	-13690
▁retained	-13691
▁vibr	-13692
▁incur	-13693
▁junk	-13694
▁stere	-13695
Mar	-13696
▁incumbent	-13697
▁evangel	-13698
▁picks	-13699
▁7.5	-13700
▁resumed	-13701
▁conclude	-13702
▁accommodation	-13703
▁felony	-13704
▁oversee	-13705
▁printed	-13706
▁Caval	-13707
▁CB	-13708
▁Hand	-13709
race	-13710
ashvili	-13711
▁awful	-13712
▁lethal	-13713
▁McChrystal	-13714
▁CDC	-13715
▁ambition	-13716
▁functions	-13717
▁2014	-13718
▁wr	-13719
▁tsunami	-13720
frey	-13721
▁filmed	-13722
sa	-13723
▁honey	-13724
arette	-13725
▁tipped	-13726
▁diplomacy	-13727
▁partial	-13728
▁stretched	-13729
▁protein	-13730
▁Bath	-13731
▁irrit	-13732
▁Iranians	-13733
▁Suz	-13734
▁grocery	-13735
▁meantime	-13736
mid	-13737
▁atomic	-13738
▁Austrian	-13739
▁Taleban	-13740
▁accl	-13741
▁gardens	-13742
liner	-13743
▁Autom	-13744
▁wheat	-13745
▁Linda	-13746
olphins	-13747
▁forthcoming	-13748
▁uncovered	-13749
▁brave	-13750
▁committees	-13751
fold	-13752
▁relaxed	-13753
▁fortunes	-13754
▁unst	-13755
▁assumptions	-13756
▁Students	-13757
General	-13758
▁convictions	-13759
ucked	-13760
▁uncomfortable	-13761
▁Valent	-13762
▁interactive	-13763
▁12,000	-13764
▁destro	-13765
▁collections	-13766
▁zones	-13767
EE	-13768
▁IA	-13769
▁jeans	-13770
▁wash	-13771
archy	-13772
▁brick	-13773
▁finale	-13774
▁identification	-13775
▁x	-13776
▁Scar	-13777
▁trio	-13778
▁impover	-13779
▁immunity	-13780
li	-13781
▁Moy	-13782
▁SUV	-13783
▁Fitz	-13784
▁eased	-13785
▁lip	-13786
▁brink	-13787
▁Pitt	-13788
▁monitors	-13789
18	-13790
guard	-13791
▁agreeing	-13792
▁cholesterol	-13793
▁reactor	-13794
▁entrepreneurs	-13795
▁pope	-13796
▁speeds	-13797
▁ugly	-13798
▁Final	-13799
quality	-13800
BUR	-13801
▁highs	-13802
books	-13803
▁Croatia	-13804
▁threatens	-13805
▁narrowly	-13806
▁Age	-13807
▁Nature	-13808
▁Think	-13809
▁projections	-13810
▁jokes	-13811
▁topics	-13812
▁complications	-13813
▁pupp	-13814
▁capability	-13815
▁mock	-13816
▁Muk	-13817
pa	-13818
▁suspend	-13819
▁floors	-13820
▁narrative	-13821
proof	-13822
▁multim	-13823
into	-13824
▁Thorn	-13825
CS	-13826
una	-13827
▁Cre	-13828
▁Uigh	-13829
▁Henderson	-13830
via	-13831
▁WHO	-13832
bishop	-13833
▁imposing	-13834
▁Mood	-13835
▁Rams	-13836
girl	-13837
▁aiming	-13838
▁similarly	-13839
antile	-13840
charge	-13841
▁EPA	-13842
▁Armen	-13843
oding	-13844
asting	-13845
ARP	-13846
▁significance	-13847
quer	-13848
erty	-13849
▁militias	-13850
▁Eve	-13851
itez	-13852
▁Kraft	-13853
cats	-13854
▁liability	-13855
▁Stafford	-13856
▁automotive	-13857
▁Thatcher	-13858
▁100-	-13859
▁autonom	-13860
▁pad	-13861
aucus	-13862
linary	-13863
▁Somers	-13864
▁albums	-13865
▁twins	-13866
▁0.9	-13867
▁lacked	-13868
▁2009.	-13869
▁Nevertheless	-13870
▁gut	-13871
respons	-13872
▁miners	-13873
▁Guild	-13874
▁click	-13875
▁medications	-13876
▁PA	-13877
▁glasses	-13878
▁drift	-13879
▁generating	-13880
▁Norweg	-13881
▁albeit	-13882
ogen	-13883
▁1969	-13884
▁Hoy	-13885
▁Nord	-13886
▁bureau	-13887
unct	-13888
retion	-13889
▁teammate	-13890
▁cater	-13891
rowth	-13892
▁slid	-13893
▁Citiz	-13894
▁Jessica	-13895
▁empire	-13896
▁poster	-13897
▁sticking	-13898
▁Luke	-13899
▁contention	-13900
▁agrees	-13901
▁deserved	-13902
▁accuse	-13903
▁enforce	-13904
▁damp	-13905
▁relation	-13906
▁Celeb	-13907
▁Katie	-13908
▁twist	-13909
boat	-13910
string	-13911
munition	-13912
▁journalism	-13913
▁candidacy	-13914
▁2008.	-13915
▁Operation	-13916
▁confronted	-13917
▁Trafford	-13918
immer	-13919
▁Sams	-13920
▁receip	-13921
23	-13922
▁Fargo	-13923
▁pockets	-13924
▁singled	-13925
▁forensic	-13926
▁occupation	-13927
oni	-13928
▁propri	-13929
▁dominate	-13930
▁insurgent	-13931
BIT	-13932
▁NL	-13933
▁autism	-13934
▁iT	-13935
▁07	-13936
▁4.2	-13937
▁Cadbury	-13938
quartered	-13939
▁inventories	-13940
▁stored	-13941
▁fren	-13942
▁Event	-13943
EST	-13944
▁Sche	-13945
▁bogey	-13946
▁Library	-13947
▁undergoing	-13948
▁brew	-13949
heads	-13950
▁locally	-13951
▁Kid	-13952
▁gray	-13953
▁specialists	-13954
▁Mach	-13955
▁Song	-13956
▁shifts	-13957
▁learnt	-13958
▁composite	-13959
▁legislators	-13960
ILL	-13961
▁Anglo	-13962
otton	-13963
▁costing	-13964
▁ecl	-13965
ONG	-13966
prises	-13967
▁Hugh	-13968
▁Currently	-13969
▁holdings	-13970
▁Say	-13971
▁supplied	-13972
▁chore	-13973
▁wrongdoing	-13974
▁Cant	-13975
▁relent	-13976
▁issuing	-13977
casters	-13978
lete	-13979
▁Chuck	-13980
▁shorter	-13981
▁Berkshire	-13982
-21	-13983
▁ripped	-13984
▁Things	-13985
▁Dell	-13986
▁ESPN	-13987
▁admitting	-13988
▁BR	-13989
lash	-13990
fr	-13991
pen	-13992
▁rubber	-13993
▁examining	-13994
▁raped	-13995
▁Come	-13996
▁adverse	-13997
▁prosecuted	-13998
▁Technologies	-13999
▁layoffs	-14000
atra	-14001
▁Benitez	-14002
▁mentally	-14003
▁li	-14004
▁villagers	-14005
▁experiencing	-14006
▁SA	-14007
▁cement	-14008
track	-14009
▁grateful	-14010
▁vaccines	-14011
azine	-14012
▁revenge	-14013
▁derivatives	-14014
▁Syrian	-14015
▁assisted	-14016
▁leak	-14017
▁Hitler	-14018
▁rubble	-14019
▁Digital	-14020
▁proving	-14021
▁heated	-14022
▁Redskins	-14023
▁graduates	-14024
▁Modern	-14025
▁Holland	-14026
▁limiting	-14027
66	-14028
uctions	-14029
▁planted	-14030
▁formation	-14031
ocus	-14032
▁seniors	-14033
su	-14034
▁incom	-14035
▁dread	-14036
adi	-14037
ISCO	-14038
▁Oprah	-14039
▁Lucas	-14040
▁Tommy	-14041
▁refugee	-14042
▁Kyoto	-14043
▁respective	-14044
▁powder	-14045
bles	-14046
▁4.4	-14047
▁Hos	-14048
▁eve	-14049
▁regain	-14050
▁IV	-14051
▁sheep	-14052
▁filming	-14053
▁Rudd	-14054
▁vigil	-14055
▁wicket	-14056
nik	-14057
▁Kan	-14058
▁depressed	-14059
▁dismant	-14060
▁Colts	-14061
▁Lisbon	-14062
▁ammunition	-14063
▁installation	-14064
unning	-14065
▁blown	-14066
shirt	-14067
▁Greens	-14068
▁notable	-14069
▁Consumers	-14070
achi	-14071
asha	-14072
▁embraced	-14073
▁reversed	-14074
-18	-14075
▁organisers	-14076
▁impoverished	-14077
istically	-14078
▁FRANC	-14079
▁Minne	-14080
▁Romania	-14081
ricanes	-14082
emi	-14083
itative	-14084
▁disastrous	-14085
▁Arena	-14086
▁4.3	-14087
ping	-14088
▁reiterated	-14089
▁precise	-14090
▁partisan	-14091
▁Reyn	-14092
duces	-14093
▁establishing	-14094
oran	-14095
▁Got	-14096
▁turbul	-14097
▁Clegg	-14098
▁applying	-14099
▁Inside	-14100
▁delivers	-14101
▁contenders	-14102
55	-14103
rove	-14104
owner	-14105
▁wickets	-14106
▁tribes	-14107
▁cartoon	-14108
▁mistaken	-14109
eor	-14110
▁Germans	-14111
▁denying	-14112
fish	-14113
▁mirror	-14114
▁Blackwater	-14115
▁360	-14116
▁wholly	-14117
▁attackers	-14118
▁1977	-14119
▁Stoke	-14120
▁suite	-14121
four	-14122
▁Everything	-14123
lements	-14124
▁Wireless	-14125
▁sket	-14126
▁hockey	-14127
▁Kenneth	-14128
▁ash	-14129
▁opted	-14130
▁retiring	-14131
UM	-14132
▁memo	-14133
▁Youth	-14134
▁perf	-14135
▁birdies	-14136
effective	-14137
▁intensity	-14138
eu	-14139
▁hem	-14140
▁lone	-14141
ungle	-14142
▁Serbian	-14143
FC	-14144
ewalk	-14145
▁Darwin	-14146
▁cripp	-14147
▁Richmond	-14148
▁Strateg	-14149
sted	-14150
▁Video	-14151
▁Rap	-14152
▁voc	-14153
▁trusted	-14154
▁Syn	-14155
lie	-14156
markets	-14157
▁persistent	-14158
▁Revolutionary	-14159
headed	-14160
▁Charter	-14161
afi	-14162
▁artificial	-14163
▁countryside	-14164
stock	-14165
▁FRANCISCO	-14166
▁Northampton	-14167
▁Gust	-14168
▁Minneapolis	-14169
mart	-14170
▁Walt	-14171
▁smashed	-14172
▁stunned	-14173
founder	-14174
thening	-14175
▁guided	-14176
▁asylum	-14177
▁predomin	-14178
,200	-14179
29	-14180
▁define	-14181
▁plaint	-14182
▁boots	-14183
▁Majority	-14184
▁patent	-14185
▁accomplished	-14186
▁batteries	-14187
▁Devils	-14188
▁likelihood	-14189
▁campaigners	-14190
iper	-14191
▁syndrome	-14192
▁separatist	-14193
▁Kyle	-14194
▁Continental	-14195
▁sheer	-14196
oop	-14197
▁2015	-14198
▁kicking	-14199
▁hes	-14200
▁Gwen	-14201
▁considerably	-14202
▁AND	-14203
▁laps	-14204
▁lane	-14205
▁languages	-14206
ORE	-14207
▁Venus	-14208
fordshire	-14209
▁tex	-14210
▁drops	-14211
▁cure	-14212
▁lawn	-14213
ierra	-14214
onents	-14215
▁Pictures	-14216
▁predicting	-14217
avin	-14218
▁Try	-14219
strom	-14220
▁Vincent	-14221
▁medicines	-14222
▁Ax	-14223
▁ethanol	-14224
▁surgeon	-14225
▁succession	-14226
▁911	-14227
▁amateur	-14228
bish	-14229
▁UAE	-14230
▁applaud	-14231
arity	-14232
▁coat	-14233
▁Shakes	-14234
▁cats	-14235
abis	-14236
inf	-14237
▁dairy	-14238
▁revival	-14239
ped	-14240
▁Tonight	-14241
▁acute	-14242
▁Aviation	-14243
▁cigarette	-14244
▁shoulders	-14245
▁recount	-14246
▁Spaniard	-14247
▁critically	-14248
▁Buy	-14249
▁appropri	-14250
▁sends	-14251
ortunate	-14252
▁skull	-14253
▁Yemeni	-14254
▁propaganda	-14255
inj	-14256
▁midday	-14257
▁whis	-14258
points	-14259
▁Suffolk	-14260
grounds	-14261
▁banker	-14262
▁caucuses	-14263
▁objections	-14264
▁gesture	-14265
28	-14266
▁farmer	-14267
cop	-14268
▁Kind	-14269
▁inadequate	-14270
▁103	-14271
▁trailed	-14272
▁stronghold	-14273
▁Organisation	-14274
hart	-14275
▁Isle	-14276
▁Blu	-14277
▁mum	-14278
anski	-14279
▁predictions	-14280
▁Famil	-14281
▁citizenship	-14282
▁tub	-14283
just	-14284
▁nerve	-14285
▁Middles	-14286
▁rack	-14287
▁banning	-14288
▁distress	-14289
▁SM	-14290
inho	-14291
▁fights	-14292
thodox	-14293
walk	-14294
berger	-14295
▁bridges	-14296
▁noon	-14297
inging	-14298
▁Idaho	-14299
ellation	-14300
▁homicide	-14301
▁liberals	-14302
▁administrator	-14303
atories	-14304
▁Boris	-14305
▁flawed	-14306
▁4-1	-14307
say	-14308
▁Rol	-14309
▁lesser	-14310
▁Mehsud	-14311
ugs	-14312
▁Wen	-14313
▁sang	-14314
oug	-14315
▁shrink	-14316
▁isolation	-14317
▁misleading	-14318
▁rehabilitation	-14319
▁Mercantile	-14320
▁fleeing	-14321
sponsored	-14322
▁Cros	-14323
▁caucus	-14324
▁convincing	-14325
comes	-14326
▁Serena	-14327
▁bay	-14328
▁Samsung	-14329
27	-14330
▁culmin	-14331
▁header	-14332
▁dot	-14333
▁relied	-14334
▁Mickelson	-14335
▁underway	-14336
Neal	-14337
▁flows	-14338
▁McCann	-14339
▁marketplace	-14340
▁speakers	-14341
aunch	-14342
▁Europeans	-14343
▁Representative	-14344
▁Lex	-14345
▁wondered	-14346
▁broadly	-14347
▁inhab	-14348
▁Esc	-14349
▁Pil	-14350
grat	-14351
▁aired	-14352
▁1973	-14353
deal	-14354
▁Jun	-14355
▁1940	-14356
uf	-14357
Sh	-14358
ride	-14359
▁Barn	-14360
▁exagger	-14361
HS	-14362
ecraft	-14363
▁Mom	-14364
criptions	-14365
▁Marcus	-14366
▁Joy	-14367
▁achieving	-14368
▁scattered	-14369
▁Fly	-14370
▁secrets	-14371
▁Opel	-14372
▁monks	-14373
▁sprawling	-14374
▁bug	-14375
▁cyn	-14376
▁Room	-14377
▁ol	-14378
▁cardi	-14379
▁racism	-14380
▁brokers	-14381
▁mechanism	-14382
▁bund	-14383
▁grav	-14384
charged	-14385
iler	-14386
▁Norwegian	-14387
iffer	-14388
▁sworn	-14389
▁Witness	-14390
▁freezing	-14391
arthy	-14392
▁migrants	-14393
▁humor	-14394
▁unlaw	-14395
ulative	-14396
▁105	-14397
▁weighing	-14398
building	-14399
▁Fashion	-14400
▁recruited	-14401
▁Yale	-14402
▁thres	-14403
▁Nissan	-14404
▁Christine	-14405
▁administrators	-14406
▁investigator	-14407
▁Kenny	-14408
▁prostate	-14409
▁RE	-14410
▁wings	-14411
▁4.1	-14412
▁pants	-14413
▁Glenn	-14414
▁destinations	-14415
▁Jobs	-14416
▁compiled	-14417
▁steroids	-14418
▁Gross	-14419
▁shrinking	-14420
▁attraction	-14421
▁combine	-14422
eta	-14423
▁Scots	-14424
peare	-14425
▁dispar	-14426
▁athlete	-14427
▁Daw	-14428
ushes	-14429
orrect	-14430
ouncing	-14431
-40	-14432
▁Ecuador	-14433
▁linking	-14434
▁Vermont	-14435
▁extremist	-14436
▁applicants	-14437
▁ghost	-14438
▁Finland	-14439
▁Eh	-14440
▁midst	-14441
▁Nathan	-14442
rod	-14443
▁advers	-14444
chi	-14445
▁caf	-14446
▁todd	-14447
▁lottery	-14448
▁popul	-14449
▁crushed	-14450
▁zoo	-14451
▁dividends	-14452
esting	-14453
▁exploring	-14454
▁Hav	-14455
berto	-14456
▁Cov	-14457
▁rebuilding	-14458
▁Liu	-14459
▁fueled	-14460
▁Mortgage	-14461
▁flower	-14462
VI	-14463
▁turnaround	-14464
cience	-14465
▁richest	-14466
▁poly	-14467
▁stones	-14468
▁endured	-14469
▁posters	-14470
▁supervision	-14471
mod	-14472
▁Din	-14473
▁rit	-14474
▁discont	-14475
ulu	-14476
weet	-14477
rahim	-14478
▁wise	-14479
▁hungry	-14480
▁Girls	-14481
▁Ja	-14482
▁unfortunate	-14483
olt	-14484
▁casting	-14485
▁backdrop	-14486
rieve	-14487
▁tortured	-14488
▁Legal	-14489
▁beloved	-14490
▁endless	-14491
kind	-14492
▁Bin	-14493
▁recl	-14494
▁exhibit	-14495
▁floating	-14496
▁hik	-14497
▁eventual	-14498
▁Treaty	-14499
▁Hey	-14500
▁Moody	-14501
▁curric	-14502
attering	-14503
▁reacted	-14504
▁Sanford	-14505
▁Somerset	-14506
▁overweight	-14507
Conn	-14508
gical	-14509
▁cubic	-14510
▁equities	-14511
▁satisfaction	-14512
▁mode	-14513
▁cycling	-14514
▁Var	-14515
▁dual	-14516
hic	-14517
▁Shakespeare	-14518
▁pitches	-14519
▁4.6	-14520
▁Felipe	-14521
UC	-14522
uating	-14523
▁Captain	-14524
▁solic	-14525
sson	-14526
▁Healthcare	-14527
▁IAEA	-14528
▁tightening	-14529
▁transparent	-14530
▁da	-14531
egates	-14532
▁honored	-14533
An	-14534
raud	-14535
▁thumb	-14536
▁historically	-14537
▁05	-14538
▁Fidel	-14539
▁authentic	-14540
▁prospective	-14541
orient	-14542
▁threshold	-14543
obi	-14544
▁Ministers	-14545
▁bilateral	-14546
▁contender	-14547
forward	-14548
▁charts	-14549
▁participated	-14550
▁Dim	-14551
▁pickup	-14552
▁oversh	-14553
▁Lah	-14554
▁congrat	-14555
oway	-14556
▁Andrews	-14557
▁setback	-14558
▁justified	-14559
issa	-14560
threat	-14561
▁shook	-14562
▁Silva	-14563
▁35-	-14564
▁cartel	-14565
▁curious	-14566
▁QC	-14567
▁procl	-14568
▁warrants	-14569
▁influenced	-14570
▁outfit	-14571
▁CR	-14572
▁accommodate	-14573
▁tide	-14574
▁museums	-14575
▁dancers	-14576
▁cooperate	-14577
▁Wildlife	-14578
▁Borders	-14579
▁calories	-14580
▁NO	-14581
▁ounce	-14582
▁deck	-14583
▁bounced	-14584
▁McCarthy	-14585
▁committing	-14586
home	-14587
raged	-14588
▁smok	-14589
▁Brett	-14590
▁spill	-14591
▁Parents	-14592
▁shelves	-14593
▁shortfall	-14594
▁Dist	-14595
▁merchand	-14596
▁Tower	-14597
▁Worth	-14598
▁psychiat	-14599
▁Separ	-14600
ste	-14601
▁hood	-14602
▁garb	-14603
▁Clay	-14604
▁EBIT	-14605
▁Sprint	-14606
▁jersey	-14607
▁catching	-14608
▁conclusions	-14609
enth	-14610
▁Lance	-14611
▁belonging	-14612
paid	-14613
▁pave	-14614
▁workplace	-14615
▁Harle	-14616
▁preparations	-14617
▁Tyler	-14618
▁insider	-14619
NE	-14620
▁beside	-14621
▁resil	-14622
▁sanct	-14623
▁scept	-14624
outheastern	-14625
urry	-14626
▁Finn	-14627
▁united	-14628
,600	-14629
▁org	-14630
▁interference	-14631
▁ignor	-14632
▁compassion	-14633
cript	-14634
▁Wake	-14635
amination	-14636
otion	-14637
isle	-14638
▁suburbs	-14639
▁reserved	-14640
irs	-14641
▁Hassan	-14642
▁underwent	-14643
▁cher	-14644
▁licensed	-14645
▁policeman	-14646
▁piano	-14647
▁tends	-14648
sterdam	-14649
▁Bradford	-14650
▁pitching	-14651
▁timetable	-14652
▁laying	-14653
▁inability	-14654
vic	-14655
▁slaughter	-14656
▁Obviously	-14657
▁Prices	-14658
▁enables	-14659
inness	-14660
▁ancest	-14661
▁detected	-14662
▁polled	-14663
start	-14664
▁Dian	-14665
fa	-14666
▁Baron	-14667
▁graduated	-14668
bian	-14669
▁Ambassador	-14670
▁nasty	-14671
▁Cruz	-14672
▁grasp	-14673
▁skeptical	-14674
▁strokes	-14675
alin	-14676
▁Drive	-14677
▁trailing	-14678
shine	-14679
urers	-14680
▁Jong	-14681
▁lin	-14682
dep	-14683
▁uninsured	-14684
▁leap	-14685
▁soup	-14686
▁technological	-14687
▁stockp	-14688
rix	-14689
uis	-14690
▁Bran	-14691
▁bite	-14692
eri	-14693
▁emotions	-14694
▁dishes	-14695
▁inflic	-14696
▁prolonged	-14697
▁Hood	-14698
▁hyper	-14699
▁branded	-14700
▁Speed	-14701
itches	-14702
▁submar	-14703
runner	-14704
uy	-14705
▁solicit	-14706
▁identifying	-14707
▁dresses	-14708
▁attitudes	-14709
▁3.9	-14710
inked	-14711
▁queen	-14712
▁Antar	-14713
▁cush	-14714
▁neuro	-14715
▁tuition	-14716
arez	-14717
▁brig	-14718
usc	-14719
,000-	-14720
KY	-14721
▁flick	-14722
▁Nig	-14723
▁retal	-14724
stairs	-14725
▁Boyle	-14726
▁plunge	-14727
▁broadcasting	-14728
▁Klein	-14729
▁Heat	-14730
▁halfway	-14731
▁Obser	-14732
▁lacks	-14733
▁Midwest	-14734
▁CCTV	-14735
▁Hungary	-14736
▁sidelines	-14737
▁boundaries	-14738
▁Button	-14739
▁contend	-14740
aines	-14741
▁reckless	-14742
▁disability	-14743
uffle	-14744
▁Freder	-14745
asant	-14746
irmed	-14747
▁29-	-14748
▁aggreg	-14749
▁delicate	-14750
▁sovereignty	-14751
▁4.8	-14752
▁dece	-14753
▁duo	-14754
uv	-14755
▁stays	-14756
▁subjected	-14757
think	-14758
▁Lenn	-14759
▁friendship	-14760
ea	-14761
▁Holder	-14762
▁unfold	-14763
▁dated	-14764
▁freely	-14765
▁electorate	-14766
▁Looking	-14767
▁Rico	-14768
▁betray	-14769
▁Hod	-14770
▁Webb	-14771
▁basement	-14772
▁gad	-14773
gart	-14774
avour	-14775
▁copyright	-14776
▁crises	-14777
▁prayers	-14778
▁bounce	-14779
▁Championships	-14780
embers	-14781
▁Trading	-14782
▁Wiz	-14783
digit	-14784
▁Charg	-14785
▁wiped	-14786
ugar	-14787
▁Wii	-14788
kirts	-14789
rafts	-14790
▁parad	-14791
▁throat	-14792
rera	-14793
Os	-14794
▁drain	-14795
▁seize	-14796
▁passionate	-14797
▁breed	-14798
▁statue	-14799
▁Gallery	-14800
azi	-14801
▁visitor	-14802
▁Tea	-14803
▁tighter	-14804
▁incon	-14805
▁furious	-14806
▁advertisers	-14807
▁firearms	-14808
▁Core	-14809
▁weird	-14810
▁orchestra	-14811
bes	-14812
▁helm	-14813
▁jihad	-14814
▁protective	-14815
▁32-	-14816
▁Beng	-14817
▁supposedly	-14818
▁Area	-14819
▁Anti	-14820
▁evol	-14821
▁Amsterdam	-14822
▁decides	-14823
▁earliest	-14824
▁Falk	-14825
▁tasks	-14826
▁outskirts	-14827
▁Belt	-14828
estine	-14829
▁Story	-14830
▁ears	-14831
▁borrowed	-14832
former	-14833
▁ordering	-14834
▁Bulls	-14835
▁battled	-14836
▁ther	-14837
cutting	-14838
▁briefed	-14839
▁athletic	-14840
▁Bert	-14841
▁computing	-14842
▁separately	-14843
▁Hindu	-14844
▁colors	-14845
▁Immigr	-14846
▁Ukrain	-14847
rams	-14848
▁dock	-14849
bucks	-14850
▁True	-14851
buster	-14852
▁vint	-14853
▁ore	-14854
▁alumin	-14855
▁slammed	-14856
[...]
